{
  "version": "1.0",
  "truncation": null,
  "padding": null,
  "added_tokens": [
    {
      "id": 0,
      "content": "<|UNK|>",
      "single_word": false,
      "lstrip": false,
      "rstrip": false,
      "normalized": false,
      "special": true
    },
    {
      "id": 1,
      "content": "<|EOS|>",
      "single_word": false,
      "lstrip": false,
      "rstrip": false,
      "normalized": false,
      "special": true
    },
    {
      "id": 2,
      "content": "<|PAD|>",
      "single_word": false,
      "lstrip": false,
      "rstrip": false,
      "normalized": false,
      "special": true
    },
    {
      "id": 3,
      "content": "<|COL|>",
      "single_word": false,
      "lstrip": false,
      "rstrip": false,
      "normalized": false,
      "special": true
    },
    {
      "id": 4,
      "content": "<|POS|>",
      "single_word": false,
      "lstrip": false,
      "rstrip": false,
      "normalized": false,
      "special": true
    },
    {
      "id": 5,
      "content": "<|ORI|>",
      "single_word": false,
      "lstrip": false,
      "rstrip": false,
      "normalized": false,
      "special": true
    },
    {
      "id": 6,
      "content": "<|SHP|>",
      "single_word": false,
      "lstrip": false,
      "rstrip": false,
      "normalized": false,
      "special": true
    },
    {
      "id": 7,
      "content": "<|CR|>",
      "single_word": false,
      "lstrip": false,
      "rstrip": false,
      "normalized": false,
      "special": true
    },
    {
      "id": 8,
      "content": "<|BU|>",
      "single_word": false,
      "lstrip": false,
      "rstrip": false,
      "normalized": false,
      "special": true
    },
    {
      "id": 9,
      "content": "<|NA|>",
      "single_word": false,
      "lstrip": false,
      "rstrip": false,
      "normalized": false,
      "special": true
    },
    {
      "id": 10,
      "content": "<|VE|>",
      "single_word": false,
      "lstrip": false,
      "rstrip": false,
      "normalized": false,
      "special": true
    }
  ],
  "normalizer": {
    "type": "Sequence",
    "normalizers": [
      {
        "type": "Replace",
        "pattern": {
          "Regex": "^(?:[^\\s]*\\s){1}[^\\s]*\\K\\s"
        },
        "content": " <|POS|> "
      },
      {
        "type": "Replace",
        "pattern": {
          "Regex": "^(?:[^\\s]*\\s){5}[^\\s]*\\K\\s"
        },
        "content": " <|ORI|> "
      },
      {
        "type": "Replace",
        "pattern": {
          "Regex": "^(?:[^\\s]*\\s){10}[^\\s]*\\K\\s"
        },
        "content": " <|SHP|> "
      }
    ]
  },
  "pre_tokenizer": {
    "type": "Sequence",
    "pretokenizers": [
      {
        "type": "WhitespaceSplit"
      },
      {
        "type": "Split",
        "pattern": {
          "Regex": "-|\\.\\d{3}"
        },
        "behavior": "Isolated",
        "invert": false
      }
    ]
  },
  "post_processor": null,
  "decoder": null,
  "model": {
    "type": "BPE",
    "dropout": null,
    "unk_token": "<|UNK|>",
    "continuing_subword_prefix": null,
    "end_of_word_suffix": null,
    "fuse_unk": false,
    "byte_fallback": false,
    "vocab": {
      "<|UNK|>": 0,
      "<|EOS|>": 1,
      "<|PAD|>": 2,
      "<|COL|>": 3,
      "<|POS|>": 4,
      "<|ORI|>": 5,
      "<|SHP|>": 6,
      "<|CR|>": 7,
      "<|BU|>": 8,
      "<|NA|>": 9,
      "<|VE|>": 10,
      "-": 11,
      ".": 12,
      "0": 13,
      "1": 14,
      "2": 15,
      "3": 16,
      "4": 17,
      "5": 18,
      "6": 19,
      "7": 20,
      "8": 21,
      "9": 22,
      "<": 23,
      ">": 24,
      "A": 25,
      "B": 26,
      "C": 27,
      "E": 28,
      "H": 29,
      "I": 30,
      "N": 31,
      "O": 32,
      "P": 33,
      "R": 34,
      "S": 35,
      "U": 36,
      "V": 37,
      "a": 38,
      "b": 39,
      "c": 40,
      "d": 41,
      "e": 42,
      "f": 43,
      "g": 44,
      "h": 45,
      "i": 46,
      "j": 47,
      "k": 48,
      "l": 49,
      "m": 50,
      "n": 51,
      "o": 52,
      "p": 53,
      "q": 54,
      "r": 55,
      "s": 56,
      "t": 57,
      "u": 58,
      "z": 59,
      "|": 60,
      "<|": 61,
      "|>": 62,
      "OS": 63,
      "OS|>": 64,
      ".d": 65,
      "HP": 66,
      "I|>": 67,
      "OR": 68,
      "POS|>": 69,
      "SHP": 70,
      "at": 71,
      "<|OR": 72,
      "<|SHP": 73,
      ".dat": 74,
      "70": 75,
      ".70": 76,
      ".707": 77,
      "00": 78,
      ".5": 79,
      "30": 80,
      "16": 81,
      "20": 82,
      ".500": 83,
      "10": 84,
      "40": 85,
      ".6": 86,
      ".0": 87,
      "15": 88,
      "80": 89,
      ".9": 90,
      "71": 91,
      "19": 92,
      "24": 93,
      "60": 94,
      ".4": 95,
      ".3": 96,
      "14": 97,
      ".2": 98,
      "32": 99,
      "50": 100,
      "72": 101,
      "12": 102,
      "3.dat": 103,
      ".8": 104,
      "36": 105,
      "18": 106,
      "90": 107,
      ".7": 108,
      "37": 109,
      "27": 110,
      "4.dat": 111,
      "28": 112,
      ".1": 113,
      "300": 114,
      "1.dat": 115,
      ".00": 116,
      "38": 117,
      "9.dat": 118,
      "5.dat": 119,
      "92": 120,
      "56": 121,
      "48": 122,
      "7.dat": 123,
      "302": 124,
      "66": 125,
      "58": 126,
      "17": 127,
      "100": 128,
      "120": 129,
      "2.dat": 130,
      "34": 131,
      "26": 132,
      "320": 133,
      "54": 134,
      "59": 135,
      "39": 136,
      "150": 137,
      "44": 138,
      "80.dat": 139,
      "65": 140,
      "110": 141,
      "140": 142,
      "29": 143,
      "200": 144,
      "35": 145,
      "160": 146,
      "47": 147,
      "25": 148,
      ".99": 149,
      "6.dat": 150,
      "88": 151,
      "3023.dat": 152,
      "53": 153,
      "64": 154,
      "83": 155,
      "33": 156,
      "130": 157,
      "11": 158,
      "306": 159,
      "2780.dat": 160,
      "98": 161,
      "77.dat": 162,
      "96": 163,
      "31": 164,
      "62": 165,
      "75": 166,
      "52": 167,
      "190": 168,
      "46": 169,
      "32.dat": 170,
      "180": 171,
      "18.dat": 172,
      "78": 173,
      "10.dat": 174,
      "24.dat": 175,
      "22": 176,
      "99": 177,
      "84": 178,
      "57": 179,
      "u92": 180,
      "u9218.dat": 181,
      "67": 182,
      "73": 183,
      "42": 184,
      "93": 185,
      "45": 186,
      "170": 187,
      "68": 188,
      "166.dat": 189,
      "74": 190,
      "94": 191,
      "76": 192,
      "13": 193,
      "3024.dat": 194,
      "240": 195,
      "79": 196,
      "87": 197,
      "370": 198,
      "49": 199,
      "69": 200,
      "82": 201,
      "614": 202,
      "43": 203,
      "89": 204,
      "86": 205,
      "3004.dat": 206,
      "61": 207,
      "8.dat": 208,
      "85": 209,
      "70.dat": 210,
      "220": 211,
      "97": 212,
      "95": 213,
      ".50": 214,
      "55": 215,
      "6141.dat": 216,
      "3005.dat": 217,
      "932.dat": 218,
      "280": 219,
      "81": 220,
      ".18": 221,
      "20.dat": 222,
      "210": 223,
      "58.dat": 224,
      "260": 225,
      ".653": 226,
      "362": 227,
      ".14": 228,
      ".16": 229,
      "23": 230,
      ".10": 231,
      "77": 232,
      ".271": 233,
      ".000": 234,
      "310": 235,
      "112": 236,
      "21": 237,
      "63": 238,
      "3710.dat": 239,
      "230": 240,
      "250": 241,
      "3069.dat": 242,
      "41": 243,
      "290": 244,
      ".60": 245,
      ".15": 246,
      "6558.dat": 247,
      ".12": 248,
      "91": 249,
      "51": 250,
      "379": 251,
      ".706": 252,
      ".19": 253,
      "36.dat": 254,
      "430": 255,
      ".924": 256,
      ".383": 257,
      "270": 258,
      "104": 259,
      ".40": 260,
      "303": 261,
      ".001": 262,
      ".24": 263,
      ".20": 264,
      "144": 265,
      "128": 266,
      "288": 267,
      "136": 268,
      "168": 269,
      "66.dat": 270,
      "60.dat": 271,
      "152": 272,
      "360": 273,
      ".999": 274,
      "12.dat": 275,
      "3070.dat": 276,
      ".71": 277,
      "3020.dat": 278,
      "31.dat": 279,
      "272": 280,
      ".80": 281,
      "330": 282,
      "3623.dat": 283,
      ".90": 284,
      "3666.dat": 285,
      "340": 286,
      "200.dat": 287,
      "54200.dat": 288,
      ".704": 289,
      "3010.dat": 290,
      "3021.dat": 291,
      ".72": 292,
      ".30": 293,
      "2412.dat": 294,
      "256": 295,
      "416": 296,
      "400": 297,
      "176": 298,
      "40.dat": 299,
      ".700": 300,
      "350": 301,
      "325": 302,
      "390": 303,
      "427": 304,
      "870": 305,
      "93.dat": 306,
      "19.dat": 307,
      "3022.dat": 308,
      ".705": 309,
      "54.dat": 310,
      "192": 311,
      "43093.dat": 312,
      ".567": 313,
      "2431.dat": 314,
      "380": 315,
      ".698": 316,
      "184": 317,
      ".259": 318,
      "371": 319,
      "56.dat": 320,
      "73.dat": 321,
      ".966": 322,
      "480": 323,
      "440": 324,
      "3062.dat": 325,
      ".866": 326,
      "3206": 327,
      "114": 328,
      ".701": 329,
      "138": 330,
      "28.dat": 331,
      "420": 332,
      ".010": 333,
      "208": 334,
      "3068.dat": 335,
      "65.dat": 336,
      "216": 337,
      "4274.dat": 338,
      "3794.dat": 339,
      "3622.dat": 340,
      "2420.dat": 341,
      ".433": 342,
      "4070.dat": 343,
      "304": 344,
      ".683": 345,
      ".004": 346,
      "3009.dat": 347,
      ".183": 348,
      "408": 349,
      "450": 350,
      "16.dat": 351,
      ".703": 352,
      ".020": 353,
      ".007": 354,
      ".006": 355,
      "37.dat": 356,
      "3460.dat": 357,
      "520": 358,
      "u9": 359,
      "248": 360,
      "224": 361,
      "560": 362,
      "4519.dat": 363,
      "410": 364,
      "190.dat": 365,
      "3713.dat": 366,
      "132": 367,
      "490": 368,
      ".316": 369,
      "u9190.dat": 370,
      "638": 371,
      ".354": 372,
      "32062.dat": 373,
      "119": 374,
      "460": 375,
      "32054.dat": 376,
      "14.dat": 377,
      ".612": 378,
      "3040.dat": 379,
      "179": 380,
      ".702": 381,
      ".092": 382,
      "570": 383,
      "244": 384,
      "3795.dat": 385,
      "374": 386,
      ".998": 387,
      "39.dat": 388,
      "8708": 389,
      "500": 390,
      ".062": 391,
      ".138": 392,
      ".693": 393,
      ".588": 394,
      "550": 395,
      "470": 396,
      ".430": 397,
      "32028.dat": 398,
      "3252": 399,
      "378": 400,
      ".003": 401,
      "6636.dat": 402,
      "102": 403,
      "232": 404,
      ".561": 405,
      ".002": 406,
      ".100": 407,
      ".116": 408,
      "3212": 409,
      "0.dat": 410,
      ".997": 411,
      "79.dat": 412,
      ".660": 413,
      "428": 414,
      "323": 415,
      "118": 416,
      ".995": 417,
      "32123.dat": 418,
      "191": 419,
      "312": 420,
      ".012": 421,
      "296": 422,
      "754.dat": 423,
      ".694": 424,
      ".990": 425,
      "264": 426,
      ".996": 427,
      "30.dat": 428,
      ".029": 429,
      "235": 430,
      "134": 431,
      ".031": 432,
      "368": 433,
      "156": 434,
      "322": 435,
      "600": 436,
      ".542": 437,
      ".046": 438,
      "124": 439,
      "1557": 440,
      "15573.dat": 441,
      "3003.dat": 442,
      ".609": 443,
      "530": 444,
      ".058": 445,
      "598": 446,
      ".991": 447,
      "126": 448,
      "108": 449,
      ".044": 450,
      ".131": 451,
      "352": 452,
      "116": 453,
      "139": 454,
      "540": 455,
      ".680": 456,
      "580": 457,
      "142": 458,
      ".009": 459,
      "3008.dat": 460,
      ".018": 461,
      ".632": 462,
      "6386": 463,
      "172": 464,
      ".008": 465,
      "26.dat": 466,
      "6536.dat": 467,
      ".600": 468,
      ".688": 469,
      "3034.dat": 470,
      ".015": 471,
      ".074": 472,
      "3660.dat": 473,
      "4162.dat": 474,
      ".454": 475,
      ".069": 476,
      "590": 477,
      "106": 478,
      "154": 479,
      ".025": 480,
      ".040": 481,
      "328": 482,
      "3001.dat": 483,
      "109": 484,
      ".800": 485,
      "336": 486,
      "159": 487,
      "4032.dat": 488,
      "138.dat": 489,
      "242": 490,
      ".014": 491,
      "344": 492,
      ".793": 493,
      "2877.dat": 494,
      ".393": 495,
      "148": 496,
      ".671": 497,
      "125": 498,
      "459": 499,
      ".987": 500,
      "6047": 501,
      "158": 502,
      ".013": 503,
      ".546": 504,
      ".697": 505,
      ".052": 506,
      "98138.dat": 507,
      "3039.dat": 508,
      "4477.dat": 509,
      "50.dat": 510,
      "3200": 511,
      ".037": 512,
      ".164": 513,
      "111": 514,
      "756.dat": 515,
      "122": 516,
      "3665.dat": 517,
      "3673.dat": 518,
      "3700.dat": 519,
      ".760": 520,
      "164": 521,
      "68.dat": 522,
      ".200": 523,
      "246": 524,
      "135": 525,
      ".033": 526,
      "301": 527,
      ".994": 528,
      "376": 529,
      "5944": 530,
      "59443.dat": 531,
      "140.dat": 532,
      ".495": 533,
      ".981": 534,
      "510": 535,
      "6048": 536,
      "198": 537,
      ".165": 538,
      ".005": 539,
      "105": 540,
      "384": 541,
      "162": 542,
      "38.dat": 543,
      "389": 544,
      "129": 545,
      ".980": 546,
      "EOS|>": 547,
      "329": 548,
      ".326": 549,
      ".101": 550,
      ".224": 551,
      "308": 552,
      ".673": 553,
      ".082": 554,
      "174": 555,
      "32140.dat": 556,
      "115": 557,
      ".110": 558,
      ".497": 559,
      "219": 560,
      "426": 561,
      ".954": 562,
      "101": 563,
      "226": 564,
      ".505": 565,
      "199": 566,
      "255": 567,
      ".086": 568,
      "245": 569,
      "2357.dat": 570,
      ".129": 571,
      ".320": 572,
      ".140": 573,
      "59.dat": 574,
      ".627": 575,
      ".695": 576,
      "92.dat": 577,
      "3705.dat": 578,
      "212": 579,
      ".080": 580,
      ".692": 581,
      "169": 582,
      "8598": 583,
      "85984.dat": 584,
      ".350": 585,
      "143": 586,
      "87079.dat": 587,
      ".640": 588,
      ".195": 589,
      ".503": 590,
      ".400": 591,
      ".988": 592,
      "32524.dat": 593,
      ".520": 594,
      ".160": 595,
      "103": 596,
      "32316.dat": 597,
      ".340": 598,
      "188": 599,
      "1865": 600,
      ".696": 601,
      "63864.dat": 602,
      ".011": 603,
      "297": 604,
      ".784": 605,
      "9920": 606,
      ".699": 607,
      ".686": 608,
      "720": 609,
      "149": 610,
      "32526.dat": 611,
      ".060": 612,
      "259": 613,
      "178": 614,
      ".416": 615,
      "640": 616,
      ".641": 617,
      "13.dat": 618,
      ".240": 619,
      ".580": 620,
      "32523.dat": 621,
      ".380": 622,
      "182": 623,
      ".301": 624,
      ".507": 625,
      "78.dat": 626,
      ".449": 627,
      ".440": 628,
      ".689": 629,
      ".940": 630,
      "424": 631,
      "121": 632,
      ".493": 633,
      "166": 634,
      ".213": 635,
      ".993": 636,
      "87087.dat": 637,
      ".557": 638,
      "392": 639,
      "141": 640,
      "394": 641,
      ".068": 642,
      "4200": 643,
      "42003.dat": 644,
      ".087": 645,
      "146": 646,
      ".983": 647,
      "239": 648,
      ".141": 649,
      ".447": 650,
      ".050": 651,
      ".678": 652,
      ".065": 653,
      "206": 654,
      ".147": 655,
      "155": 656,
      "321": 657,
      ".960": 658,
      "680": 659,
      ".572": 660,
      "189": 661,
      "123": 662,
      "354": 663,
      ".676": 664,
      "151": 665,
      "204": 666,
      ".385": 667,
      ".667": 668,
      "3749.dat": 669,
      "147": 670,
      ".531": 671,
      ".070": 672,
      ".575": 673,
      ".097": 674,
      ".111": 675,
      "292": 676,
      ".720": 677,
      "3037.dat": 678,
      ".360": 679,
      ".499": 680,
      ".120": 681,
      ".026": 682,
      "175": 683,
      "589.dat": 684,
      ".411": 685,
      ".105": 686,
      ".596": 687,
      "145": 688,
      "218": 689,
      "11214.dat": 690,
      ".056": 691,
      ".035": 692,
      ".992": 693,
      ".560": 694,
      ".171": 695,
      "285": 696,
      ".280": 697,
      ".423": 698,
      "196": 699,
      "609": 700,
      ".467": 701,
      ".509": 702,
      "186": 703,
      ".450": 704,
      "127": 705,
      ".030": 706,
      ".021": 707,
      "133": 708,
      ".049": 709,
      ".690": 710,
      "412": 711,
      ".016": 712,
      ".566": 713,
      "131": 714,
      ".510": 715,
      ".482": 716,
      ".674": 717,
      "448": 718,
      ".478": 719,
      "194": 720,
      ".156": 721,
      "258": 722,
      ".036": 723,
      ".480": 724,
      ".250": 725,
      "575": 726,
      ".622": 727,
      ".462": 728,
      ".521": 729,
      ".042": 730,
      ".180": 731,
      ".333": 732,
      "165": 733,
      ".687": 734,
      ".041": 735,
      "113": 736,
      ".534": 737,
      "153": 738,
      ".024": 739,
      "32073.dat": 740,
      "107": 741,
      "472": 742,
      ".253": 743,
      ".593": 744,
      ".514": 745,
      "241": 746,
      ".300": 747,
      "432": 748,
      ".675": 749,
      ".556": 750,
      ".028": 751,
      ".662": 752,
      ".989": 753,
      ".550": 754,
      "117": 755,
      ".498": 756,
      ".090": 757,
      ".643": 758,
      "157": 759,
      ".860": 760,
      ".053": 761,
      ".017": 762,
      "233": 763,
      ".078": 764,
      ".979": 765,
      ".880": 766,
      "238": 767,
      "4865.dat": 768,
      "417": 769,
      ".212": 770,
      "234": 771,
      "137": 772,
      "484": 773,
      ".681": 774,
      ".370": 775,
      "173": 776,
      "509": 777,
      "90.dat": 778,
      ".106": 779,
      ".342": 780,
      ".517": 781,
      ".840": 782,
      ".540": 783,
      "184.dat": 784,
      ".150": 785,
      ".491": 786,
      "161": 787,
      ".088": 788,
      ".435": 789,
      ".034": 790,
      ".624": 791,
      ".473": 792,
      ".043": 793,
      "2288": 794,
      ".485": 795,
      ".139": 796,
      "11477.dat": 797,
      ".038": 798,
      "185": 799,
      "616": 800,
      "586": 801,
      "282": 802,
      "22885.dat": 803,
      ".647": 804,
      ".783": 805,
      "214": 806,
      ".162": 807,
      "456": 808,
      ".496": 809,
      ".620": 810,
      ".562": 811,
      "654": 812,
      ".233": 813,
      "488": 814,
      "3002.dat": 815,
      ".642": 816,
      ".130": 817,
      "177": 818,
      ".894": 819,
      ".023": 820,
      ".664": 821,
      ".153": 822,
      "620": 823,
      ".071": 824,
      ".406": 825,
      "15.dat": 826,
      ".525": 827,
      ".426": 828,
      ".077": 829,
      ".047": 830,
      ".920": 831,
      ".579": 832,
      "163": 833,
      ".910": 834,
      "171": 835,
      ".583": 836,
      ".061": 837,
      ".128": 838,
      ".539": 839,
      ".420": 840,
      ".669": 841,
      "202": 842,
      ".479": 843,
      "6091.dat": 844,
      ".229": 845,
      ".242": 846,
      ".682": 847,
      ".986": 848,
      ".650": 849,
      "228": 850,
      "205": 851,
      ".260": 852,
      ".022": 853,
      "464": 854,
      ".685": 855,
      "167": 856,
      "875": 857,
      ".489": 858,
      ".073": 859,
      "278.dat": 860,
      "418": 861,
      "222": 862,
      "181": 863,
      ".019": 864,
      ".750": 865,
      ".931": 866,
      ".590": 867,
      "32278.dat": 868,
      ".691": 869,
      "236": 870,
      ".831": 871,
      ".032": 872,
      "364": 873,
      "15068.dat": 874,
      ".766": 875,
      ".900": 876,
      ".191": 877,
      ".827": 878,
      "610": 879,
      ".099": 880,
      ".321": 881,
      ".173": 882,
      ".633": 883,
      ".850": 884,
      "223": 885,
      ".714": 886,
      ".089": 887,
      ".072": 888,
      ".589": 889,
      ".972": 890,
      "444": 891,
      ".445": 892,
      ".284": 893,
      ".288": 894,
      ".145": 895,
      ".214": 896,
      ".230": 897,
      ".276": 898,
      "252": 899,
      ".971": 900,
      "00.dat": 901,
      ".332": 902,
      ".079": 903,
      ".096": 904,
      "279": 905,
      "209": 906,
      ".155": 907,
      "32013.dat": 908,
      ".039": 909,
      ".291": 910,
      ".083": 911,
      ".574": 912,
      "3832.dat": 913,
      "34.dat": 914,
      ".363": 915,
      ".952": 916,
      "6143.dat": 917,
      ".299": 918,
      ".236": 919,
      ".526": 920,
      ".976": 921,
      "40490": 922,
      "40490.dat": 923,
      "48.dat": 924,
      "32184.dat": 925,
      ".123": 926,
      "32525.dat": 927,
      ".045": 928,
      ".459": 929,
      ".055": 930,
      ".950": 931,
      ".075": 932,
      "201": 933,
      ".985": 934,
      ".142": 935,
      ".114": 936,
      ".603": 937,
      ".063": 938,
      ".656": 939,
      ".711": 940,
      ".504": 941,
      "183": 942,
      ".629": 943,
      ".569": 944,
      ".392": 945,
      "6632.dat": 946,
      "187": 947,
      ".460": 948,
      ".098": 949,
      ".646": 950,
      ".148": 951,
      ".094": 952,
      ".530": 953,
      ".586": 954,
      ".906": 955,
      ".434": 956,
      ".216": 957,
      ".179": 958,
      ".366": 959,
      ".887": 960,
      ".118": 961,
      ".636": 962,
      "660": 963,
      ".210": 964,
      ".618": 965,
      ".502": 966,
      ".126": 967,
      "33.dat": 968,
      "2555.dat": 969,
      "195": 970,
      ".081": 971,
      ".121": 972,
      ".970": 973,
      ".982": 974,
      ".239": 975,
      ".169": 976,
      "3701.dat": 977,
      ".398": 978,
      ".516": 979,
      ".630": 980,
      ".663": 981,
      ".135": 982,
      ".084": 983,
      ".547": 984,
      "249": 985,
      ".066": 986,
      "348": 987,
      ".051": 988,
      ".057": 989,
      ".737": 990,
      ".108": 991,
      ".554": 992,
      ".117": 993,
      "276": 994,
      "268": 995,
      "274": 996,
      ".625": 997,
      "100.dat": 998,
      ".732": 999,
      ".861": 1000,
      ".048": 1001,
      ".312": 1002,
      ".206": 1003,
      ".553": 1004,
      ".174": 1005,
      ".391": 1006,
      ".104": 1007,
      "193": 1008,
      ".458": 1009,
      ".353": 1010,
      "8586": 1011,
      ".359": 1012,
      "2429.dat": 1013,
      "630": 1014,
      "4286.dat": 1015,
      ".027": 1016,
      ".713": 1017,
      ".132": 1018,
      ".076": 1019,
      "438": 1020,
      ".143": 1021,
      "57518.dat": 1022,
      ".064": 1023,
      ".424": 1024,
      ".610": 1025,
      "700": 1026,
      "197": 1027,
      "243": 1028,
      "9828": 1029,
      "3706.dat": 1030,
      "4085.dat": 1031,
      ".623": 1032,
      ".107": 1033,
      ".490": 1034,
      ".133": 1035,
      "318": 1036,
      ".369": 1037,
      ".184": 1038,
      ".716": 1039,
      ".672": 1040,
      ".220": 1041,
      "483": 1042,
      ".452": 1043,
      ".234": 1044,
      ".358": 1045,
      "3941.dat": 1046,
      ".085": 1047,
      ".470": 1048,
      ".371": 1049,
      ".407": 1050,
      ".820": 1051,
      ".638": 1052,
      ".272": 1053,
      ".112": 1054,
      ".152": 1055,
      ".390": 1056,
      "3032.dat": 1057,
      ".175": 1058,
      ".611": 1059,
      "2430.dat": 1060,
      ".122": 1061,
      ".858": 1062,
      ".949": 1063,
      "261": 1064,
      ".961": 1065,
      ".219": 1066,
      ".538": 1067,
      "207": 1068,
      ".649": 1069,
      ".657": 1070,
      ".929": 1071,
      "728.dat": 1072,
      "44728.dat": 1073,
      "265": 1074,
      "536": 1075,
      ".570": 1076,
      ".677": 1077,
      ".054": 1078,
      ".930": 1079,
      "608": 1080,
      ".381": 1081,
      ".466": 1082,
      ".522": 1083,
      "213": 1084,
      "299": 1085,
      ".134": 1086,
      ".578": 1087,
      ".439": 1088,
      "262": 1089,
      "215": 1090,
      "15100.dat": 1091,
      ".372": 1092,
      ".559": 1093,
      ".780": 1094,
      ".523": 1095,
      ".658": 1096,
      "229": 1097,
      "4081.dat": 1098,
      ".409": 1099,
      ".492": 1100,
      "85861.dat": 1101,
      "3036": 1102,
      "41677.dat": 1103,
      "599": 1104,
      ".248": 1105,
      "247": 1106,
      ".735": 1107,
      "275": 1108,
      ".487": 1109,
      "271": 1110,
      ".973": 1111,
      "30136.dat": 1112,
      ".602": 1113,
      ".364": 1114,
      ".494": 1115,
      ".059": 1116,
      "3037": 1117,
      ".181": 1118,
      ".484": 1119,
      ".208": 1120,
      ".182": 1121,
      ".582": 1122,
      ".679": 1123,
      ".415": 1124,
      ".373": 1125,
      ".149": 1126,
      ".438": 1127,
      "72.dat": 1128,
      ".304": 1129,
      "593.dat": 1130,
      ".684": 1131,
      "4265.dat": 1132,
      ".661": 1133,
      ".615": 1134,
      ".552": 1135,
      ".606": 1136,
      ".457": 1137,
      ".772": 1138,
      ".293": 1139,
      "50950.dat": 1140,
      ".899": 1141,
      ".235": 1142,
      ".158": 1143,
      "4589.dat": 1144,
      ".628": 1145,
      ".501": 1146,
      ".442": 1147,
      "211": 1148,
      ".404": 1149,
      ".549": 1150,
      "3031.dat": 1151,
      ".962": 1152,
      ".581": 1153,
      "6541.dat": 1154,
      ".576": 1155,
      "382": 1156,
      ".948": 1157,
      "98283.dat": 1158,
      ".244": 1159,
      ".545": 1160,
      ".666": 1161,
      ".168": 1162,
      ".468": 1163,
      "486": 1164,
      ".670": 1165,
      ".317": 1166,
      ".488": 1167,
      ".935": 1168,
      ".626": 1169,
      ".146": 1170,
      ".710": 1171,
      ".355": 1172,
      ".911": 1173,
      ".375": 1174,
      "203": 1175,
      ".124": 1176,
      ".115": 1177,
      "98.dat": 1178,
      "528": 1179,
      ".740": 1180,
      ".188": 1181,
      ".207": 1182,
      ".327": 1183,
      ".864": 1184,
      ".412": 1185,
      ".159": 1186,
      ".444": 1187,
      "339": 1188,
      ".136": 1189,
      ".749": 1190,
      ".446": 1191,
      ".315": 1192,
      ".792": 1193,
      ".518": 1194,
      "496": 1195,
      "293": 1196,
      ".819": 1197,
      "469": 1198,
      "800": 1199,
      "278": 1200,
      ".319": 1201,
      ".928": 1202,
      ".186": 1203,
      "319": 1204,
      ".258": 1205,
      ".974": 1206,
      ".194": 1207,
      "18654.dat": 1208,
      "760": 1209,
      ".177": 1210,
      "356": 1211,
      ".334": 1212,
      ".387": 1213,
      ".959": 1214,
      ".652": 1215,
      ".095": 1216,
      "342": 1217,
      ".565": 1218,
      "395": 1219,
      ".270": 1220,
      ".144": 1221,
      "291": 1222,
      "504": 1223,
      ".323": 1224,
      ".192": 1225,
      ".109": 1226,
      ".331": 1227,
      ".870": 1228,
      ".621": 1229,
      ".527": 1230,
      ".362": 1231,
      ".113": 1232,
      ".577": 1233,
      ".172": 1234,
      ".464": 1235,
      ".532": 1236,
      ".659": 1237,
      ".427": 1238,
      ".103": 1239,
      ".328": 1240,
      ".865": 1241,
      ".401": 1242,
      "656": 1243,
      "217": 1244,
      ".190": 1245,
      ".469": 1246,
      "251": 1247,
      "254": 1248,
      "309": 1249,
      ".285": 1250,
      ".513": 1251,
      "281": 1252,
      "99207.dat": 1253,
      ".282": 1254,
      ".154": 1255,
      ".382": 1256,
      ".564": 1257,
      ".330": 1258,
      ".824": 1259,
      ".592": 1260,
      ".486": 1261,
      ".917": 1262,
      ".395": 1263,
      ".802": 1264,
      ".245": 1265,
      "227": 1266,
      "41239.dat": 1267,
      ".137": 1268,
      ".809": 1269,
      ".238": 1270,
      ".455": 1271,
      ".770": 1272,
      "512": 1273,
      "478": 1274,
      ".506": 1275,
      "60478.dat": 1276,
      "462": 1277,
      ".730": 1278,
      ".091": 1279,
      ".644": 1280,
      ".830": 1281,
      "316": 1282,
      "2462.dat": 1283,
      ".984": 1284,
      ".605": 1285,
      ".536": 1286,
      ".587": 1287,
      ".290": 1288,
      ".839": 1289,
      "880": 1290,
      ".645": 1291,
      ".537": 1292,
      ".309": 1293,
      ".432": 1294,
      ".544": 1295,
      ".923": 1296,
      "365": 1297,
      "311": 1298,
      ".528": 1299,
      ".203": 1300,
      ".225": 1301,
      "6231.dat": 1302,
      ".127": 1303,
      ".934": 1304,
      ".651": 1305,
      ".431": 1306,
      "294": 1307,
      ".927": 1308,
      ".548": 1309,
      ".339": 1310,
      "35480.dat": 1311,
      ".751": 1312,
      ".310": 1313,
      ".668": 1314,
      ".790": 1315,
      ".635": 1316,
      ".215": 1317,
      ".189": 1318,
      ".915": 1319,
      "225": 1320,
      ".598": 1321,
      ".170": 1322,
      ".810": 1323,
      ".151": 1324,
      ".246": 1325,
      "289": 1326,
      ".281": 1327,
      ".254": 1328,
      "650": 1329,
      ".890": 1330,
      ".901": 1331,
      ".318": 1332,
      ".295": 1333,
      ".515": 1334,
      "284": 1335,
      ".727": 1336,
      ".176": 1337,
      ".477": 1338,
      ".655": 1339,
      "32556.dat": 1340,
      ".204": 1341,
      ".067": 1342,
      "253": 1343,
      ".555": 1344,
      "87580.dat": 1345,
      ".637": 1346,
      ".247": 1347,
      ".262": 1348,
      ".456": 1349,
      ".252": 1350,
      ".298": 1351,
      ".199": 1352,
      ".267": 1353,
      ".187": 1354,
      ".093": 1355,
      ".274": 1356,
      ".815": 1357,
      ".166": 1358,
      ".231": 1359,
      ".843": 1360,
      "231": 1361,
      "87083.dat": 1362,
      "32034.dat": 1363,
      ".396": 1364,
      ".378": 1365,
      "269.dat": 1366,
      ".287": 1367,
      ".529": 1368,
      ".421": 1369,
      ".218": 1370,
      "99206.dat": 1371,
      "257": 1372,
      ".558": 1373,
      "60483.dat": 1374,
      "32064.dat": 1375,
      ".481": 1376,
      ".163": 1377,
      ".932": 1378,
      ".453": 1379,
      ".619": 1380,
      ".386": 1381,
      ".119": 1382,
      "4459.dat": 1383,
      ".255": 1384,
      ".568": 1385,
      ".511": 1386,
      "2445.dat": 1387,
      ".956": 1388,
      ".665": 1389,
      ".897": 1390,
      ".472": 1391,
      "605": 1392,
      ".859": 1393,
      ".722": 1394,
      ".201": 1395,
      "658": 1396,
      "266": 1397,
      ".977": 1398,
      ".125": 1399,
      ".967": 1400,
      ".389": 1401,
      ".367": 1402,
      ".296": 1403,
      ".474": 1404,
      ".167": 1405,
      ".346": 1406,
      ".428": 1407,
      ".731": 1408,
      "358": 1409,
      "568": 1410,
      "422": 1411,
      ".563": 1412,
      "780": 1413,
      ".257": 1414,
      ".209": 1415,
      ".243": 1416,
      ".508": 1417,
      ".344": 1418,
      ".919": 1419,
      ".717": 1420,
      ".585": 1421,
      "62462.dat": 1422,
      ".768": 1423,
      ".221": 1424,
      ".343": 1425,
      ".654": 1426,
      ".352": 1427,
      ".812": 1428,
      ".223": 1429,
      "3894.dat": 1430,
      ".202": 1431,
      "221": 1432,
      ".483": 1433,
      "3937.dat": 1434,
      ".634": 1435,
      ".198": 1436,
      ".217": 1437,
      ".712": 1438,
      ".422": 1439,
      ".379": 1440,
      ".273": 1441,
      ".945": 1442,
      ".289": 1443,
      "59900.dat": 1444,
      "4372": 1445,
      ".875": 1446,
      ".595": 1447,
      ".337": 1448,
      ".597": 1449,
      ".868": 1450,
      ".617": 1451,
      "332": 1452,
      ".410": 1453,
      ".335": 1454,
      "584": 1455,
      ".376": 1456,
      ".402": 1457,
      ".157": 1458,
      ".197": 1459,
      ".512": 1460,
      ".303": 1461,
      ".394": 1462,
      ".399": 1463,
      ".408": 1464,
      "18651.dat": 1465,
      "32039.dat": 1466,
      ".368": 1467,
      "6060": 1468,
      ".471": 1469,
      ".436": 1470,
      ".196": 1471,
      ".728": 1472,
      ".604": 1473,
      ".614": 1474,
      ".476": 1475,
      ".648": 1476,
      ".265": 1477,
      "298": 1478,
      ".322": 1479,
      "552": 1480,
      ".594": 1481,
      ".573": 1482,
      ".232": 1483,
      ".958": 1484,
      ".944": 1485,
      ".311": 1486,
      ".892": 1487,
      ".969": 1488,
      ".857": 1489,
      ".405": 1490,
      ".178": 1491,
      "2654.dat": 1492,
      ".429": 1493,
      ".356": 1494,
      ".584": 1495,
      "3035.dat": 1496,
      "286": 1497,
      ".418": 1498,
      ".403": 1499,
      ".263": 1500,
      "11.dat": 1501,
      ".161": 1502,
      ".787": 1503,
      "287": 1504,
      "712.dat": 1505,
      ".814": 1506,
      ".898": 1507,
      ".185": 1508,
      ".307": 1509,
      ".443": 1510,
      ".639": 1511,
      ".918": 1512,
      ".277": 1513,
      ".535": 1514,
      "544": 1515,
      "2540.dat": 1516,
      ".338": 1517,
      "4599.dat": 1518,
      ".524": 1519,
      ".873": 1520,
      "388": 1521,
      ".767": 1522,
      ".725": 1523,
      ".608": 1524,
      "359": 1525,
      ".571": 1526,
      ".862": 1527,
      "346": 1528,
      ".601": 1529,
      ".804": 1530,
      ".345": 1531,
      ".726": 1532,
      ".286": 1533,
      ".543": 1534,
      "960": 1535,
      ".856": 1536,
      "317": 1537,
      "2449.dat": 1538,
      ".736": 1539,
      ".279": 1540,
      ".397": 1541,
      ".283": 1542,
      ".975": 1543,
      "922": 1544,
      "396": 1545,
      ".237": 1546,
      ".269": 1547,
      ".329": 1548,
      ".278": 1549,
      ".874": 1550,
      ".227": 1551,
      "273": 1552,
      "4490.dat": 1553,
      ".764": 1554,
      "30374.dat": 1555,
      "263": 1556,
      ".719": 1557,
      ".308": 1558,
      "820": 1559,
      ".306": 1560,
      "237": 1561,
      ".388": 1562,
      ".425": 1563,
      ".249": 1564,
      ".978": 1565,
      "305": 1566,
      ".463": 1567,
      "625": 1568,
      ".241": 1569,
      ".417": 1570,
      ".222": 1571,
      ".211": 1572,
      ".361": 1573,
      ".294": 1574,
      ".193": 1575,
      ".551": 1576,
      ".964": 1577,
      ".832": 1578,
      ".879": 1579,
      ".228": 1580,
      ".709": 1581,
      ".848": 1582,
      ".808": 1583,
      ".302": 1584,
      ".775": 1585,
      ".715": 1586,
      ".908": 1587,
      "690": 1588,
      "385": 1589,
      ".205": 1590,
      "452": 1591,
      "15712.dat": 1592,
      ".943": 1593,
      ".451": 1594,
      "897.dat": 1595,
      ".256": 1596,
      ".758": 1597,
      "60897.dat": 1598,
      "334": 1599,
      "32000.dat": 1600,
      ".102": 1601,
      "30414.dat": 1602,
      "3329": 1603,
      ".795": 1604,
      ".251": 1605,
      ".946": 1606,
      ".756": 1607,
      "740": 1608,
      ".854": 1609,
      ".419": 1610,
      ".261": 1611,
      "3702.dat": 1612,
      ".461": 1613,
      "367": 1614,
      ".825": 1615,
      "730": 1616,
      "269": 1617,
      ".779": 1618,
      ".724": 1619,
      ".807": 1620,
      ".324": 1621,
      ".853": 1622,
      ".297": 1623,
      ".937": 1624,
      ".266": 1625,
      "324": 1626,
      ".867": 1627,
      "4740.dat": 1628,
      ".349": 1629,
      "434": 1630,
      ".947": 1631,
      "414": 1632,
      ".763": 1633,
      "345": 1634,
      ".914": 1635,
      ".922": 1636,
      "662": 1637,
      ".752": 1638,
      ".348": 1639,
      "5074": 1640,
      ".264": 1641,
      ".226": 1642,
      "4282.dat": 1643,
      "3703.dat": 1644,
      ".441": 1645,
      ".734": 1646,
      "2660": 1647,
      ".872": 1648,
      ".762": 1649,
      "48336.dat": 1650,
      ".591": 1651,
      ".748": 1652,
      ".968": 1653,
      "576": 1654,
      ".437": 1655,
      ".816": 1656,
      ".292": 1657,
      "366": 1658,
      "372": 1659,
      ".631": 1660,
      ".895": 1661,
      ".465": 1662,
      ".913": 1663,
      "611": 1664,
      "92280.dat": 1665,
      ".834": 1666,
      ".936": 1667,
      ".325": 1668,
      ".829": 1669,
      ".336": 1670,
      ".921": 1671,
      ".916": 1672,
      ".769": 1673,
      ".533": 1674,
      ".384": 1675,
      ".718": 1676,
      "613": 1677,
      ".939": 1678,
      ".837": 1679,
      "3873.dat": 1680,
      ".519": 1681,
      ".414": 1682,
      ".305": 1683,
      ".607": 1684,
      "997": 1685,
      "11211.dat": 1686,
      "670": 1687,
      ".708": 1688,
      "313": 1689,
      "445": 1690,
      "648": 1691,
      ".788": 1692,
      ".365": 1693,
      ".896": 1694,
      ".941": 1695,
      ".742": 1696,
      "3298.dat": 1697,
      ".743": 1698,
      "719.dat": 1699,
      ".613": 1700,
      "518": 1701,
      "326": 1702,
      ".268": 1703,
      ".889": 1704,
      ".448": 1705,
      ".374": 1706,
      "99780.dat": 1707,
      ".341": 1708,
      ".616": 1709,
      "710": 1710,
      ".313": 1711,
      ".938": 1712,
      ".823": 1713,
      ".885": 1714,
      "267": 1715,
      ".314": 1716,
      ".844": 1717,
      "3711.dat": 1718,
      ".925": 1719,
      ".413": 1720,
      "294.dat": 1721,
      "338": 1722,
      ".377": 1723,
      ".782": 1724,
      ".955": 1725,
      "604": 1726,
      "398": 1727,
      "277": 1728,
      ".599": 1729,
      ".822": 1730,
      ".759": 1731,
      "71.dat": 1732,
      ".541": 1733,
      ".729": 1734,
      ".888": 1735,
      "283": 1736,
      ".357": 1737,
      ".847": 1738,
      "578": 1739,
      ".275": 1740,
      ".926": 1741,
      ".351": 1742,
      ".744": 1743,
      ".347": 1744,
      ".781": 1745,
      ".794": 1746,
      ".838": 1747,
      ".883": 1748,
      ".882": 1749,
      ".881": 1750,
      ".852": 1751,
      ".799": 1752,
      "327": 1753,
      "60592.dat": 1754,
      ".849": 1755,
      ".777": 1756,
      "179.dat": 1757,
      ".806": 1758,
      "44294.dat": 1759,
      "474": 1760,
      "25269.dat": 1761,
      "63869.dat": 1762,
      ".836": 1763,
      "63868.dat": 1764,
      "314": 1765,
      "4592.dat": 1766,
      ".796": 1767,
      ".876": 1768,
      "61678.dat": 1769,
      ".805": 1770,
      ".855": 1771,
      ".785": 1772,
      ".739": 1773,
      ".957": 1774,
      "2456.dat": 1775,
      "341": 1776,
      ".746": 1777,
      "905.dat": 1778,
      "47905.dat": 1779,
      ".841": 1780,
      "295": 1781,
      ".863": 1782,
      "594": 1783,
      ".886": 1784,
      "3659.dat": 1785,
      "33291.dat": 1786,
      "3680.dat": 1787,
      "387": 1788,
      ".817": 1789,
      ".851": 1790,
      "664": 1791,
      ".942": 1792,
      ".869": 1793,
      "592": 1794,
      ".903": 1795,
      "307": 1796,
      ".965": 1797,
      ".909": 1798,
      ".951": 1799,
      ".902": 1800,
      ".761": 1801,
      ".757": 1802,
      ".721": 1803,
      ".475": 1804,
      ".773": 1805,
      ".745": 1806,
      "32002.dat": 1807,
      "624": 1808,
      "790": 1809,
      "32449.dat": 1810,
      ".842": 1811,
      ".818": 1812,
      ".798": 1813,
      ".723": 1814,
      ".933": 1815,
      "415": 1816,
      ".755": 1817,
      ".791": 1818,
      "32270.dat": 1819,
      "4216.dat": 1820,
      ".907": 1821,
      "50746.dat": 1822,
      "406": 1823,
      ".789": 1824,
      ".891": 1825,
      "351": 1826,
      ".878": 1827,
      "399": 1828,
      ".786": 1829,
      ".771": 1830,
      ".846": 1831,
      "558": 1832,
      "4695.dat": 1833,
      ".912": 1834,
      "409": 1835,
      "3707.dat": 1836,
      "386": 1837,
      "302.dat": 1838,
      ".776": 1839,
      "331": 1840,
      ".833": 1841,
      ".828": 1842,
      "632": 1843,
      ".765": 1844,
      ".904": 1845,
      "92593.dat": 1846,
      "44302.dat": 1847,
      "32009.dat": 1848,
      "6587.dat": 1849,
      "615": 1850,
      "74695.dat": 1851,
      "442": 1852,
      "6019.dat": 1853,
      "453": 1854,
      "2436.dat": 1855,
      ".754": 1856,
      "840": 1857,
      "6589.dat": 1858,
      "909.dat": 1859,
      "3245": 1860,
      "402": 1861,
      ".797": 1862,
      ".741": 1863,
      "3297.dat": 1864,
      ".813": 1865,
      "750": 1866,
      "449": 1867,
      "419": 1868,
      "473": 1869,
      "3895.dat": 1870,
      ".953": 1871,
      "335": 1872,
      "357": 1873,
      ".738": 1874,
      ".733": 1875,
      "672": 1876,
      "353": 1877,
      ".884": 1878,
      "989.dat": 1879,
      ".801": 1880,
      "355": 1881,
      ".753": 1882,
      "363": 1883,
      "369": 1884,
      "3229": 1885,
      "446": 1886,
      "4593.dat": 1887,
      "60484.dat": 1888,
      ".845": 1889,
      ".774": 1890,
      "381": 1891,
      "439": 1892,
      "425": 1893,
      "6628.dat": 1894,
      "6538.dat": 1895,
      ".821": 1896,
      "48989.dat": 1897,
      "343": 1898,
      "349": 1899,
      ".826": 1900,
      "393": 1901,
      "498": 1902,
      ".835": 1903,
      "347": 1904,
      "76.dat": 1905,
      ".905": 1906,
      "404": 1907,
      "925.dat": 1908,
      "3038.dat": 1909,
      ".778": 1910,
      "383": 1911,
      ".747": 1912,
      "32056.dat": 1913,
      "15672.dat": 1914,
      "479": 1915,
      "2921.dat": 1916,
      "3957.dat": 1917,
      "6140": 1918,
      ".893": 1919,
      ".803": 1920,
      ".877": 1921,
      "315": 1922,
      "519": 1923,
      "736": 1924,
      "499": 1925,
      "559": 1926,
      "1546": 1927,
      "361": 1928,
      "770": 1929,
      "468": 1930,
      "61409.dat": 1931,
      "373": 1932,
      "704": 1933,
      "33909.dat": 1934,
      "2454.dat": 1935,
      "383.dat": 1936,
      "876": 1937,
      "337": 1938,
      "696": 1939,
      "403": 1940,
      "60479.dat": 1941,
      "411": 1942,
      "485": 1943,
      "436": 1944,
      "4510.dat": 1945,
      "3709.dat": 1946,
      "890": 1947,
      "489": 1948,
      "32291.dat": 1949,
      "4176": 1950,
      "397": 1951,
      "548": 1952,
      "516": 1953,
      "441": 1954,
      "3747.dat": 1955,
      "688": 1956,
      "946.dat": 1957,
      ".811": 1958,
      "6014.dat": 1959,
      "375": 1960,
      ".963": 1961,
      "405": 1962,
      "4079.dat": 1963,
      "165.dat": 1964,
      "6111.dat": 1965,
      "517": 1966,
      "781.dat": 1967,
      "482.dat": 1968,
      "3024": 1969,
      "3036.dat": 1970,
      "6464": 1971,
      "487": 1972,
      "3063.dat": 1973,
      "88.dat": 1974,
      "99781.dat": 1975,
      "535.dat": 1976,
      "87082.dat": 1977,
      "3035": 1978,
      "1194": 1979,
      "333": 1980,
      "756": 1981,
      "612": 1982,
      "451": 1983,
      "511": 1984,
      "4624.dat": 1985,
      "561": 1986,
      "476": 1987,
      "421": 1988,
      "103.dat": 1989,
      "3260": 1990,
      "4287.dat": 1991,
      "458": 1992,
      "391": 1993,
      "377": 1994,
      "920": 1995,
      "401": 1996,
      "309.dat": 1997,
      "481": 1998,
      "454": 1999,
      "60593.dat": 2000,
      "3033.dat": 2001,
      "11212.dat": 2002,
      "2432.dat": 2003,
      "3737.dat": 2004,
      "639": 2005,
      "3030.dat": 2006,
      "30244.dat": 2007,
      "34103.dat": 2008,
      "466": 2009,
      "64644.dat": 2010,
      "850": 2011,
      "525": 2012,
      "20482.dat": 2013,
      "431": 2014,
      "11478.dat": 2015,
      "716": 2016,
      "2450.dat": 2017,
      "43722.dat": 2018,
      "556": 2019,
      "52.dat": 2020,
      "932": 2021,
      "3633.dat": 2022,
      "6134.dat": 2023,
      "41770.dat": 2024,
      "53.dat": 2025,
      "6629.dat": 2026,
      "994.dat": 2027,
      "471": 2028,
      "87994.dat": 2029,
      "437": 2030,
      "3056": 2031,
      ".871": 2032,
      "4185.dat": 2033,
      "435": 2034,
      "2730.dat": 2035,
      "712": 2036,
      "587": 2037,
      "494": 2038,
      "810": 2039,
      "3045.dat": 2040,
      "6059": 2041,
      "447": 2042,
      "860": 2043,
      "521": 2044,
      "b.dat": 2045,
      "413": 2046,
      "619": 2047,
      "30039.dat": 2048,
      "57.dat": 2049,
      "429": 2050,
      "461": 2051,
      "27.dat": 2052,
      "506": 2053,
      "14719.dat": 2054,
      "3938.dat": 2055,
      "495": 2056,
      "43723.dat": 2057,
      "2444.dat": 2058,
      "145.dat": 2059,
      "4460.dat": 2060,
      "3029.dat": 2061,
      "a.dat": 2062,
      "407": 2063,
      "792": 2064,
      "32016.dat": 2065,
      "535": 2066,
      "6125": 2067,
      "61252.dat": 2068,
      "32607.dat": 2069,
      "546": 2070,
      "87552.dat": 2071,
      "60481.dat": 2072,
      "3651.dat": 2073,
      "539": 2074,
      "618": 2075,
      "952.dat": 2076,
      "531": 2077,
      "c.dat": 2078,
      "551": 2079,
      "3065.dat": 2080,
      "465": 2081,
      "752": 2082,
      "41769.dat": 2083,
      "508": 2084,
      "3958.dat": 2085,
      "307.dat": 2086,
      "32952.dat": 2087,
      "24316.dat": 2088,
      "94925.dat": 2089,
      "457": 2090,
      "3185.dat": 2091,
      "3738.dat": 2092,
      "15462.dat": 2093,
      "527": 2094,
      "501": 2095,
      "32063.dat": 2096,
      "2825.dat": 2097,
      "4445.dat": 2098,
      "524": 2099,
      "776": 2100,
      "24866.dat": 2101,
      "515": 2102,
      "3007.dat": 2103,
      "93273.dat": 2104,
      "60601.dat": 2105,
      "502": 2106,
      "43857.dat": 2107,
      "475": 2108,
      "564": 2109,
      "11476.dat": 2110,
      "2417.dat": 2111,
      "482": 2112,
      "728": 2113,
      "60470.dat": 2114,
      "56145.dat": 2115,
      "2465.dat": 2116,
      "1120": 2117,
      "538": 2118,
      "571": 2119,
      "3219": 2120,
      "585.dat": 2121,
      "413.dat": 2122,
      "60474.dat": 2123,
      "492": 2124,
      "64179.dat": 2125,
      "969": 2126,
      "467": 2127,
      "768": 2128,
      "491": 2129,
      "1000": 2130,
      "6232.dat": 2131,
      "603": 2132,
      "3708.dat": 2133,
      "523": 2134,
      "4273.dat": 2135,
      "30137.dat": 2136,
      "1020": 2137,
      "4864.dat": 2138,
      "26603.dat": 2139,
      "507": 2140,
      "1470": 2141,
      "940": 2142,
      "6478": 2143,
      "497": 2144,
      "537": 2145,
      "4872": 2146,
      "2453.dat": 2147,
      "3626.dat": 2148,
      "24309.dat": 2149,
      "150.dat": 2150,
      "41678.dat": 2151,
      "566": 2152,
      "63965.dat": 2153,
      "565": 2154,
      "3641.dat": 2155,
      "784": 2156,
      "301.dat": 2157,
      "2852.dat": 2158,
      "581": 2159,
      "2851.dat": 2160,
      "514": 2161,
      "287.dat": 2162,
      "26287.dat": 2163,
      "433": 2164,
      "6015.dat": 2165,
      "3245c.dat": 2166,
      "48729.dat": 2167,
      "606": 2168,
      "15458.dat": 2169,
      "588": 2170,
      "505": 2171,
      "92946.dat": 2172,
      "832": 2173,
      "636": 2174,
      "64782.dat": 2175,
      "96910.dat": 2176,
      "652": 2177,
      "4150.dat": 2178,
      "567": 2179,
      "423": 2180,
      "49307.dat": 2181,
      "572": 2182,
      "3004": 2183,
      "9290": 2184,
      "32018.dat": 2185,
      "4202": 2186,
      "5095": 2187,
      "3684.dat": 2188,
      "1060": 2189,
      "549": 2190,
      "5598": 2191,
      "836": 2192,
      "44301.dat": 2193,
      "744": 2194,
      "762.dat": 2195,
      "477": 2196,
      "808": 2197,
      "4175.dat": 2198,
      "889": 2199,
      "542": 2200,
      "37762.dat": 2201,
      "900": 2202,
      "463": 2203,
      "443": 2204,
      "4276.dat": 2205,
      "30357.dat": 2206,
      "30363.dat": 2207,
      "6179.dat": 2208,
      "545": 2209,
      "532": 2210,
      "3647.dat": 2211,
      "617": 2212,
      "60602.dat": 2213,
      "634": 2214,
      "320.dat": 2215,
      "4456": 2216,
      "42610.dat": 2217,
      "582": 2218,
      "526": 2219,
      "2296": 2220,
      "597": 2221,
      "513": 2222,
      "990": 2223,
      "541": 2224,
      "668.dat": 2225,
      "49668.dat": 2226,
      "32348.dat": 2227,
      "32271.dat": 2228,
      "796": 2229,
      "3046.dat": 2230,
      "1440": 2231,
      "50951.dat": 2232,
      "22961.dat": 2233,
      "555": 2234,
      "107.dat": 2235,
      "622": 2236,
      "574": 2237,
      "18677.dat": 2238,
      "6553.dat": 2239,
      "30565.dat": 2240,
      "3028.dat": 2241,
      "6005.dat": 2242,
      "503": 2243,
      "8740": 2244,
      "577": 2245,
      "1441": 2246,
      "30365.dat": 2247,
      "493": 2248,
      "554": 2249,
      "11090.dat": 2250,
      "596": 2251,
      "522": 2252,
      "30383.dat": 2253,
      "6112.dat": 2254,
      "591": 2255,
      "534": 2256,
      "802": 2257,
      "830": 2258,
      "759": 2259,
      "585": 2260,
      "553": 2261,
      "3050": 2262,
      "60485.dat": 2263,
      "51719.dat": 2264,
      "62520.dat": 2265,
      "455": 2266,
      "59426.dat": 2267,
      "872": 2268,
      "651": 2269,
      "75535.dat": 2270,
      "9900": 2271,
      "52107.dat": 2272,
      "1894": 2273,
      "602": 2274,
      "4623.dat": 2275,
      "54383.dat": 2276,
      "250.dat": 2277,
      "30377.dat": 2278,
      "14716.dat": 2279,
      "686": 2280,
      "3743.dat": 2281,
      "1520": 2282,
      "2850.dat": 2283,
      "804": 2284,
      "644": 2285,
      "183.dat": 2286,
      "601": 2287,
      "9360": 2288,
      "3830.dat": 2289,
      "384.dat": 2290,
      "766": 2291,
      "32250.dat": 2292,
      "1024": 2293,
      "69.dat": 2294,
      "3482.dat": 2295,
      "3648.dat": 2296,
      "980": 2297,
      "4275.dat": 2298,
      "54384.dat": 2299,
      "4733.dat": 2300,
      "60477.dat": 2301,
      "55013.dat": 2302,
      "2458.dat": 2303,
      "30367.dat": 2304,
      "32124.dat": 2305,
      "676": 2306,
      "816": 2307,
      "543": 2308,
      "748": 2309,
      "755.dat": 2310,
      "708": 2311,
      "6157.dat": 2312,
      "343.dat": 2313,
      "2339.dat": 2314,
      "3831.dat": 2315,
      "32015.dat": 2316,
      "6180.dat": 2317,
      "32014.dat": 2318,
      "4600.dat": 2319,
      "3176.dat": 2320,
      "9977": 2321,
      "562": 2322,
      "1553": 2323,
      "15533.dat": 2324,
      "6081.dat": 2325,
      "26604.dat": 2326,
      "589": 2327,
      "641": 2328,
      "579": 2329,
      "15070.dat": 2330,
      "92907.dat": 2331,
      "657": 2332,
      "352.dat": 2333,
      "14417.dat": 2334,
      "11946.dat": 2335,
      "2736.dat": 2336,
      "732": 2337,
      "11947.dat": 2338,
      "2344": 2339,
      "2419.dat": 2340,
      "60596.dat": 2341,
      "23443.dat": 2342,
      "99773.dat": 2343,
      "862": 2344,
      "1080": 2345,
      "952": 2346,
      "30413.dat": 2347,
      "17.dat": 2348,
      "595": 2349,
      "684": 2350,
      "628": 2351,
      "678": 2352,
      "48092.dat": 2353,
      "593": 2354,
      "714": 2355,
      "2905.dat": 2356,
      "37352.dat": 2357,
      "11458.dat": 2358,
      "2817.dat": 2359,
      "2476.dat": 2360,
      "774": 2361,
      "99008.dat": 2362,
      "3854.dat": 2363,
      "529": 2364,
      "718": 2365,
      "120.dat": 2366,
      "32192.dat": 2367,
      "646": 2368,
      "721": 2369,
      "51739.dat": 2370,
      "4488.dat": 2371,
      "209.dat": 2372,
      "3255": 2373,
      "3027.dat": 2374,
      "4019.dat": 2375,
      "379.dat": 2376,
      "1040": 2377,
      "4739": 2378,
      "1476": 2379,
      "930": 2380,
      "919": 2381,
      "626": 2382,
      "936": 2383,
      "573": 2384,
      "1050": 2385,
      "642": 2386,
      "824": 2387,
      "6191.dat": 2388,
      "93606.dat": 2389,
      "3006.dat": 2390,
      "1500": 2391,
      "944": 2392,
      "4215.dat": 2393,
      "533": 2394,
      "803": 2395,
      "3679.dat": 2396,
      "2335.dat": 2397,
      "794": 2398,
      "64.dat": 2399,
      "807": 2400,
      "674.dat": 2401,
      "35464.dat": 2402,
      "15535.dat": 2403,
      "706": 2404,
      "645": 2405,
      "569": 2406,
      "758.dat": 2407,
      "4315.dat": 2408,
      "30044.dat": 2409,
      "88930.dat": 2410,
      "547": 2411,
      "14704.dat": 2412,
      "15379.dat": 2413,
      "668": 2414,
      "33183.dat": 2415,
      "4033.dat": 2416,
      "201.dat": 2417,
      "557": 2418,
      "734": 2419,
      "3704.dat": 2420,
      "699": 2421,
      "765": 2422,
      "6439": 2423,
      "11203.dat": 2424,
      "3829.dat": 2425,
      "88072.dat": 2426,
      "563": 2427,
      "6468": 2428,
      "2853.dat": 2429,
      "695": 2430,
      "3956.dat": 2431,
      "701": 2432,
      "1260": 2433,
      "41669.dat": 2434,
      "4745": 2435,
      "3015": 2436,
      "910": 2437,
      "788": 2438,
      "3839.dat": 2439,
      "707": 2440,
      "951": 2441,
      "4862.dat": 2442,
      "694": 2443,
      "3055": 2444,
      "32530.dat": 2445,
      "806": 2446,
      "669": 2447,
      "3742.dat": 2448,
      "30364.dat": 2449,
      "643": 2450,
      "607": 2451,
      "819": 2452,
      "4218.dat": 2453,
      "702": 2454,
      "10928.dat": 2455,
      "698": 2456,
      "635": 2457,
      "32017.dat": 2458,
      "973.dat": 2459,
      "91988.dat": 2460,
      "798": 2461,
      "2494.dat": 2462,
      "705": 2463,
      "01.dat": 2464,
      "60475.dat": 2465,
      "24201.dat": 2466,
      "623": 2467,
      "18946.dat": 2468,
      "3280": 2469,
      "246.dat": 2470,
      "703": 2471,
      "813": 2472,
      "24246.dat": 2473,
      "2446.dat": 2474,
      "691": 2475,
      "3245a.dat": 2476,
      "1240": 2477,
      "27925.dat": 2478,
      "4143.dat": 2479,
      "32828.dat": 2480,
      "2362.dat": 2481,
      "32803.dat": 2482,
      "55981.dat": 2483,
      "3578": 2484,
      "47457.dat": 2485,
      "746": 2486,
      "801": 2487,
      "905": 2488,
      "629": 2489,
      "1460": 2490,
      "26601.dat": 2491,
      "666": 2492,
      "4735.dat": 2493,
      "659": 2494,
      "817": 2495,
      "29120.dat": 2496,
      "958": 2497,
      "786": 2498,
      "675": 2499,
      "32269.dat": 2500,
      "859": 2501,
      "924": 2502,
      "993.dat": 2503,
      "9019": 2504,
      "711": 2505,
      "2569.dat": 2506,
      "791": 2507,
      "5094": 2508,
      "904": 2509,
      "2653.dat": 2510,
      "25214.dat": 2511,
      "724": 2512,
      "785": 2513,
      "14769.dat": 2514,
      "4625.dat": 2515,
      "725": 2516,
      "44567.dat": 2517,
      "818": 2518,
      "2878.dat": 2519,
      "762": 2520,
      "633": 2521,
      "1030": 2522,
      "2639.dat": 2523,
      "323.dat": 2524,
      "88323.dat": 2525,
      "1090": 2526,
      "36840.dat": 2527,
      "3016": 2528,
      "621": 2529,
      "735": 2530,
      "882": 2531,
      "3712.dat": 2532,
      "4213.dat": 2533,
      "814": 2534,
      "60594.dat": 2535,
      "29119.dat": 2536,
      "4161.dat": 2537,
      "3899.dat": 2538,
      "826": 2539,
      "631": 2540,
      "c01.dat": 2541,
      "754": 2542,
      "674": 2543,
      "30503.dat": 2544,
      "665": 2545,
      "856": 2546,
      "1270": 2547,
      "18674.dat": 2548,
      "726": 2549,
      "929": 2550,
      "749": 2551,
      "752.dat": 2552,
      "8760": 2553,
      "3741.dat": 2554,
      "3960.dat": 2555,
      "681": 2556,
      "950": 2557,
      "87407.dat": 2558,
      "755": 2559,
      "42023.dat": 2560,
      "35787.dat": 2561,
      "30162.dat": 2562,
      "87609.dat": 2563,
      "10247.dat": 2564,
      "33320.dat": 2565,
      "1220": 2566,
      "809": 2567,
      "47.dat": 2568,
      "851": 2569,
      "26047.dat": 2570,
      "3048.dat": 2571,
      "767": 2572,
      "6106.dat": 2573,
      "1190": 2574,
      "87620.dat": 2575,
      "805": 2576,
      "4444.dat": 2577,
      "751": 2578,
      "42022.dat": 2579,
      "75937.dat": 2580,
      "771": 2581,
      "30562.dat": 2582,
      "778": 2583,
      "637": 2584,
      "1140": 2585,
      "685": 2586,
      "733": 2587,
      "2423.dat": 2588,
      "782": 2589,
      "32557.dat": 2590,
      "6266.dat": 2591,
      "848": 2592,
      "3788.dat": 2593,
      "1110": 2594,
      "60608.dat": 2595,
      "841": 2596,
      "85080.dat": 2597,
      "795": 2598,
      "30236.dat": 2599,
      "3253": 2600,
      "1019": 2601,
      "6058": 2602,
      "742": 2603,
      "583": 2604,
      "731": 2605,
      "888": 2606,
      "30356.dat": 2607,
      "758": 2608,
      "673": 2609,
      "1420": 2610,
      "15461.dat": 2611,
      "1200": 2612,
      "739": 2613,
      "4697": 2614,
      "249.dat": 2615,
      "5030": 2616,
      "655": 2617,
      "715": 2618,
      "208.dat": 2619,
      "1100": 2620,
      "32249.dat": 2621,
      "30355.dat": 2622,
      "697": 2623,
      "1170": 2624,
      "671": 2625,
      "42446.dat": 2626,
      "5789": 2627,
      "2343.dat": 2628,
      "717": 2629,
      "799": 2630,
      "722": 2631,
      "709": 2632,
      "1480": 2633,
      "787": 2634,
      "43898.dat": 2635,
      "667": 2636,
      "687": 2637,
      "23950.dat": 2638,
      "661": 2639,
      "6564.dat": 2640,
      "9327": 2641,
      "93274.dat": 2642,
      "3685.dat": 2643,
      "3678.dat": 2644,
      "693": 2645,
      "925": 2646,
      "61184.dat": 2647,
      "4859.dat": 2648,
      "692": 2649,
      "781": 2650,
      "682": 2651,
      "761": 2652,
      "689": 2653,
      "2460.dat": 2654,
      "4084.dat": 2655,
      "1010": 2656,
      "90195.dat": 2657,
      "745": 2658,
      "653": 2659,
      "763": 2660,
      "779": 2661,
      "719": 2662,
      "741": 2663,
      "811": 2664,
      "4022.dat": 2665,
      "812": 2666,
      "6565.dat": 2667,
      "41740.dat": 2668,
      "943": 2669,
      "50745.dat": 2670,
      "21.dat": 2671,
      "32531.dat": 2672,
      "32209.dat": 2673,
      "62519.dat": 2674,
      "55982.dat": 2675,
      "98585.dat": 2676,
      "896": 2677,
      "14720.dat": 2678,
      "984": 2679,
      "3933.dat": 2680,
      "3081": 2681,
      "300.dat": 2682,
      "3934.dat": 2683,
      "3038": 2684,
      "1390": 2685,
      "4261.dat": 2686,
      "797": 2687,
      "577.dat": 2688,
      "921": 2689,
      "3676.dat": 2690,
      "32126.dat": 2691,
      "2726": 2692,
      "32072.dat": 2693,
      "44309.dat": 2694,
      "4349.dat": 2695,
      "647": 2696,
      "737": 2697,
      "126.dat": 2698,
      "99021.dat": 2699,
      "30553.dat": 2700,
      "3675.dat": 2701,
      "3940.dat": 2702,
      "6556.dat": 2703,
      "2854.dat": 2704,
      "87408.dat": 2705,
      "1310": 2706,
      "1864": 2707,
      "32532.dat": 2708,
      "964": 2709,
      "827": 2710,
      "1286": 2711,
      "32065.dat": 2712,
      "44568.dat": 2713,
      "6060.dat": 2714,
      "38585.dat": 2715,
      "18948.dat": 2716,
      "933": 2717,
      "815": 2718,
      "912": 2719,
      "10197.dat": 2720,
      "30165.dat": 2721,
      "32001.dat": 2722,
      "953": 2723,
      "2739.dat": 2724,
      "4697b.dat": 2725,
      "823": 2726,
      "835": 2727,
      "2238": 2728,
      "864": 2729,
      "992": 2730,
      "33299.dat": 2731,
      "3228.dat": 2732,
      "4183.dat": 2733,
      "3942.dat": 2734,
      "2743.dat": 2735,
      "44570.dat": 2736,
      "586.dat": 2737,
      "55.dat": 2738,
      "88292.dat": 2739,
      "3853.dat": 2740,
      "961": 2741,
      "30000.dat": 2742,
      "cc01.dat": 2743,
      "41539.dat": 2744,
      "1180": 2745,
      "30237.dat": 2746,
      "3081cc01.dat": 2747,
      "18649.dat": 2748,
      "15208.dat": 2749,
      "2346.dat": 2750,
      "822": 2751,
      "13965.dat": 2752,
      "677": 2753,
      "3139.dat": 2754,
      "24116.dat": 2755,
      "60471.dat": 2756,
      "902": 2757,
      "1539": 2758,
      "1282": 2759,
      "4073.dat": 2760,
      "47397.dat": 2761,
      "4229.dat": 2762,
      "938": 2763,
      "1300": 2764,
      "1160": 2765,
      "723": 2766,
      "3041.dat": 2767,
      "30055.dat": 2768,
      "627": 2769,
      "1014": 2770,
      "727": 2771,
      "176.dat": 2772,
      "753": 2773,
      "866": 2774,
      "27940.dat": 2775,
      "793": 2776,
      "1530": 2777,
      "32198.dat": 2778,
      "914": 2779,
      "57895.dat": 2780,
      "4531.dat": 2781,
      "663": 2782,
      "970": 2783,
      "2744.dat": 2784,
      "649": 2785,
      "30028.dat": 2786,
      "3455.dat": 2787,
      "64683.dat": 2788,
      "773": 2789,
      "30153.dat": 2790,
      "854": 2791,
      "47398.dat": 2792,
      "928": 2793,
      "64391.dat": 2794,
      "6332": 2795,
      "1340": 2796,
      "777": 2797,
      "843": 2798,
      "821": 2799,
      "27263.dat": 2800,
      "825": 2801,
      "60581.dat": 2802,
      "32138.dat": 2803,
      "738": 2804,
      "4467": 2805,
      "883": 2806,
      "828": 2807,
      "4871.dat": 2808,
      "2880": 2809,
      "12825.dat": 2810,
      "2493.dat": 2811,
      "14418.dat": 2812,
      "764": 2813,
      "3855.dat": 2814,
      "30027.dat": 2815,
      "5690": 2816,
      "1016": 2817,
      "30586.dat": 2818,
      "3856.dat": 2819,
      "6062": 2820,
      "846": 2821,
      "87080.dat": 2822,
      "18945.dat": 2823,
      "485.dat": 2824,
      "4254.dat": 2825,
      "9269": 2826,
      "4476.dat": 2827,
      "23948.dat": 2828,
      "1350": 2829,
      "874": 2830,
      "4083.dat": 2831,
      "4255.dat": 2832,
      "1070": 2833,
      "1471": 2834,
      "772": 2835,
      "942": 2836,
      "2875.dat": 2837,
      "789": 2838,
      "729": 2839,
      "4095.dat": 2840,
      "769": 2841,
      "747": 2842,
      "3822.dat": 2843,
      "4442.dat": 2844,
      "3959.dat": 2845,
      "775": 2846,
      "934": 2847,
      "60623.dat": 2848,
      "544.dat": 2849,
      "87544.dat": 2850,
      "8769": 2851,
      "1296": 2852,
      "6249.dat": 2853,
      "3308.dat": 2854,
      "30648.dat": 2855,
      "757": 2856,
      "743": 2857,
      "62531.dat": 2858,
      "683": 2859,
      "11215.dat": 2860,
      "937": 2861,
      "45677.dat": 2862,
      "55976.dat": 2863,
      "4034.dat": 2864,
      "63325.dat": 2865,
      "122.dat": 2866,
      "28802.dat": 2867,
      "1459": 2868,
      "713": 2869,
      "22388.dat": 2870,
      "4174": 2871,
      "44676.dat": 2872,
      "976": 2873,
      "4262.dat": 2874,
      "3821.dat": 2875,
      "87086.dat": 2876,
      "3823.dat": 2877,
      "349.dat": 2878,
      "92950.dat": 2879,
      "1150": 2880,
      "2959.dat": 2881,
      "945": 2882,
      "4345.dat": 2883,
      "15413.dat": 2884,
      "4437": 2885,
      "87697.dat": 2886,
      "1469": 2887,
      "38320.dat": 2888,
      "18944.dat": 2889,
      "17485.dat": 2890,
      "855": 2891,
      "3245b.dat": 2892,
      "6190.dat": 2893,
      "6215.dat": 2894,
      "892": 2895,
      "2413.dat": 2896,
      "4716.dat": 2897,
      "58176.dat": 2898,
      "1320": 2899,
      "4495.dat": 2900,
      "44375.dat": 2901,
      "679": 2902,
      "1104": 2903,
      "3060": 2904,
      "30602.dat": 2905,
      "50947.dat": 2906,
      "878": 2907,
      "1130": 2908,
      "4346.dat": 2909,
      "43888.dat": 2910,
      "3581.dat": 2911,
      "1439": 2912,
      "1479": 2913,
      "4854.dat": 2914,
      "4168": 2915,
      "59349.dat": 2916,
      "4035.dat": 2917,
      "6126.dat": 2918,
      "4730.dat": 2919,
      "9309": 2920,
      "243.dat": 2921,
      "871": 2922,
      "857": 2923,
      "90258.dat": 2924,
      "4166.dat": 2925,
      "4266.dat": 2926,
      "95820.dat": 2927,
      "908": 2928,
      "4590.dat": 2929,
      "6182.dat": 2930,
      "939": 2931,
      "967.dat": 2932,
      "6259.dat": 2933,
      "6542.dat": 2934,
      "837": 2935,
      "895": 2936,
      "831": 2937,
      "u90": 2938,
      "3456.dat": 2939,
      "897": 2940,
      "32494.dat": 2941,
      "868": 2942,
      "30361.dat": 2943,
      "842": 2944,
      "4189": 2945,
      "44126.dat": 2946,
      "2819.dat": 2947,
      "85863.dat": 2948,
      "1032": 2949,
      "1126": 2950,
      "11954.dat": 2951,
      "6084": 2952,
      "60849.dat": 2953,
      "2452.dat": 2954,
      "1450": 2955,
      "6233.dat": 2956,
      "941": 2957,
      "4092.dat": 2958,
      "11253.dat": 2959,
      "3184.dat": 2960,
      "3039": 2961,
      "1071": 2962,
      "1052": 2963,
      "30386.dat": 2964,
      "24119.dat": 2965,
      "1525": 2966,
      "2466.dat": 2967,
      "916": 2968,
      "90540.dat": 2969,
      "1857": 2970,
      "6222.dat": 2971,
      "572.dat": 2972,
      "838": 2973,
      "3307.dat": 2974,
      "178.dat": 2975,
      "99.dat": 2976,
      "4263.dat": 2977,
      "3483.dat": 2978,
      "1484": 2979,
      "646.dat": 2980,
      "2711.dat": 2981,
      "1064": 2982,
      "829": 2983,
      "9150": 2984,
      "91501.dat": 2985,
      "948": 2986,
      "2377.dat": 2987,
      "1330": 2988,
      "3044.dat": 2989,
      "50967.dat": 2990,
      "9294": 2991,
      "92947.dat": 2992,
      "5529": 2993,
      "881": 2994,
      "6641.dat": 2995,
      "1118": 2996,
      "2920.dat": 2997,
      "18575.dat": 2998,
      "41682.dat": 2999,
      "32606.dat": 3000,
      "9140": 3001,
      "91405.dat": 3002,
      "1354": 3003,
      "2340.dat": 3004,
      "931": 3005,
      "783": 3006,
      "1410": 3007,
      "1230": 3008,
      "3684": 3009,
      "36841.dat": 3010,
      "4180.dat": 3011,
      "4595.dat": 3012,
      "946": 3013,
      "847": 3014,
      "88646.dat": 3015,
      "865": 3016,
      "1897": 3017,
      "1400": 3018,
      "1360": 3019,
      "41747.dat": 3020,
      "956": 3021,
      "3043.dat": 3022,
      "3634.dat": 3023,
      "898": 3024,
      "10202.dat": 3025,
      "361.dat": 3026,
      "62361.dat": 3027,
      "911": 3028,
      "6020.dat": 3029,
      "50305.dat": 3030,
      "839": 3031,
      "6269.dat": 3032,
      "8594": 3033,
      "60032.dat": 3034,
      "41748.dat": 3035,
      "894": 3036,
      "4371": 3037,
      "30046.dat": 3038,
      "3326.dat": 3039,
      "32555.dat": 3040,
      "3218": 3041,
      "906": 3042,
      "63290.dat": 3043,
      "15207.dat": 3044,
      "5989": 3045,
      "59895.dat": 3046,
      "834": 3047,
      "344.dat": 3048,
      "873": 3049,
      "879": 3050,
      "4285.dat": 3051,
      "3650.dat": 3052,
      "33243.dat": 3053,
      "4515.dat": 3054,
      "32324.dat": 3055,
      "u9053.dat": 3056,
      "32006.dat": 3057,
      "6479": 3058,
      "64799.dat": 3059,
      "24307.dat": 3060,
      "64178.dat": 3061,
      "30350.dat": 3062,
      "6308": 3063,
      "63082.dat": 3064,
      "1527": 3065,
      "50304.dat": 3066,
      "935": 3067,
      "4181.dat": 3068,
      "13547.dat": 3069,
      "985": 3070,
      "877": 3071,
      "6087.dat": 3072,
      "1532": 3073,
      "1570": 3074,
      "1456": 3075,
      "901": 3076,
      "4533.dat": 3077,
      "949": 3078,
      "2926.dat": 3079,
      "867": 3080,
      "3943.dat": 3081,
      "6148": 3082,
      "1529": 3083,
      "14718.dat": 3084,
      "d.dat": 3085,
      "14419.dat": 3086,
      "833": 3087,
      "4447.dat": 3088,
      "1278": 3089,
      "918": 3090,
      "73092.dat": 3091,
      "29.dat": 3092,
      "861": 3093,
      "15395.dat": 3094,
      "2582.dat": 3095,
      "93095.dat": 3096,
      "590.dat": 3097,
      "809.dat": 3098,
      "44809.dat": 3099,
      "44300.dat": 3100,
      "16770.dat": 3101,
      "57520.dat": 3102,
      "3233": 3103,
      "32333.dat": 3104,
      "4182.dat": 3105,
      "845": 3106,
      "1017": 3107,
      "993": 3108,
      "891": 3109,
      "1915": 3110,
      "1380": 3111,
      "47458.dat": 3112,
      "303.dat": 3113,
      "45590.dat": 3114,
      "926": 3115,
      "507.dat": 3116,
      "27507.dat": 3117,
      "64393.dat": 3118,
      "885": 3119,
      "3066": 3120,
      "30663.dat": 3121,
      "2429": 3122,
      "24299.dat": 3123,
      "4536.dat": 3124,
      "1490": 3125,
      "30099.dat": 3126,
      "1272": 3127,
      "377.dat": 3128,
      "51377.dat": 3129,
      "884": 3130,
      "1560": 3131,
      "869": 3132,
      "750.dat": 3133,
      "30505.dat": 3134,
      "4448.dat": 3135,
      "3963.dat": 3136,
      "947": 3137,
      "1056": 3138,
      "1478": 3139,
      "995": 3140,
      "3475.dat": 3141,
      "3838.dat": 3142,
      "6003.dat": 3143,
      "41767.dat": 3144,
      "33303.dat": 3145,
      "979": 3146,
      "1485": 3147,
      "92410.dat": 3148,
      "1096": 3149,
      "32068.dat": 3150,
      "1528": 3151,
      "41768.dat": 3152,
      "64681.dat": 3153,
      "2489.dat": 3154,
      "2345.dat": 3155,
      "968": 3156,
      "962": 3157,
      "3815.dat": 3158,
      "4596.dat": 3159,
      "18947.dat": 3160,
      "886": 3161,
      "4522.dat": 3162,
      "1250": 3163,
      "4176.dat": 3164,
      "1550": 3165,
      "1034": 3166,
      "157.dat": 3167,
      "1288": 3168,
      "47157.dat": 3169,
      "92906.dat": 3170,
      "6575.dat": 3171,
      "191915": 3172,
      "2909.dat": 3173,
      "87618.dat": 3174,
      "1294": 3175,
      "u112": 3176,
      "1540": 3177,
      "342.dat": 3178,
      "887": 3179,
      "1049": 3180,
      "58090.dat": 3181,
      "2910.dat": 3182,
      "1280": 3183,
      "4186": 3184,
      "41862.dat": 3185,
      "2341.dat": 3186,
      "52031.dat": 3187,
      "2923.dat": 3188,
      "15470.dat": 3189,
      "2433.dat": 3190,
      "32059.dat": 3191,
      "15706.dat": 3192,
      "849": 3193,
      "6190": 3194,
      "3979": 3195,
      "u910": 3196,
      "85970.dat": 3197,
      "2723.dat": 3198,
      "1513": 3199,
      "2486.dat": 3200,
      "9039": 3201,
      "3890.dat": 3202,
      "98100.dat": 3203,
      "963": 3204,
      "30504.dat": 3205,
      "844": 3206,
      "225.dat": 3207,
      "32529.dat": 3208,
      "913": 3209,
      "1004": 3210,
      "1054": 3211,
      "60208.dat": 3212,
      "3300.dat": 3213,
      "92909.dat": 3214,
      "32293.dat": 3215,
      "3479.dat": 3216,
      "9355": 3217,
      "4211.dat": 3218,
      "4855.dat": 3219,
      "971": 3220,
      "1113": 3221,
      "5345": 3222,
      "53451.dat": 3223,
      "6140.dat": 3224,
      "57519.dat": 3225,
      "1436": 3226,
      "32187.dat": 3227,
      "1290": 3228,
      "1366": 3229,
      "41896.dat": 3230,
      "205.dat": 3231,
      "48205.dat": 3232,
      "2637.dat": 3233,
      "30391.dat": 3234,
      "2485": 3235,
      "50943.dat": 3236,
      "24855.dat": 3237,
      "76537.dat": 3238,
      "18653.dat": 3239,
      "32019.dat": 3240,
      "3962.dat": 3241,
      "988": 3242,
      "1483": 3243,
      "1442": 3244,
      "57878.dat": 3245,
      "70720.dat": 3246,
      "3013": 3247,
      "2434.dat": 3248,
      "6070.dat": 3249,
      "4214.dat": 3250,
      "30359.dat": 3251,
      "4863.dat": 3252,
      "44237.dat": 3253,
      "852": 3254,
      "965": 3255,
      "41531.dat": 3256,
      "18977.dat": 3257,
      "48208.dat": 3258,
      "1008": 3259,
      "1028": 3260,
      "2738.dat": 3261,
      "1510": 3262,
      "1455": 3263,
      "1167": 3264,
      "23816.dat": 3265,
      "53585.dat": 3266,
      "121.dat": 3267,
      "22890.dat": 3268,
      "93555.dat": 3269,
      "1235": 3270,
      "1443": 3271,
      "60616": 3272,
      "1022": 3273,
      "40344.dat": 3274,
      "6178.dat": 3275,
      "85943.dat": 3276,
      "30552.dat": 3277,
      "1092": 3278,
      "1514": 3279,
      "1486": 3280,
      "44674.dat": 3281,
      "6192.dat": 3282,
      "3836.dat": 3283,
      "853": 3284,
      "1531": 3285,
      "15397.dat": 3286,
      "1468": 3287,
      "99010.dat": 3288,
      "1245": 3289,
      "2873.dat": 3290,
      "4872.dat": 3291,
      "959": 3292,
      "14696.dat": 3293,
      "99009.dat": 3294,
      "1121": 3295,
      "98286.dat": 3296,
      "1036": 3297,
      "1088": 3298,
      "1472": 3299,
      "1496": 3300,
      "1356": 3301,
      "30145.dat": 3302,
      "30134.dat": 3303,
      "9359": 3304,
      "86210.dat": 3305,
      "32005.dat": 3306,
      "2498.dat": 3307,
      "4870.dat": 3308,
      "499.dat": 3309,
      "23969.dat": 3310,
      "915": 3311,
      "4532.dat": 3312,
      "30126.dat": 3313,
      "293.dat": 3314,
      "88293.dat": 3315,
      "345.dat": 3316,
      "60583.dat": 3317,
      "4873.dat": 3318,
      "1058": 3319,
      "48183.dat": 3320,
      "1489": 3321,
      "160.dat": 3322,
      "863": 3323,
      "30526.dat": 3324,
      "6282": 3325,
      "62821.dat": 3326,
      "3837.dat": 3327,
      "1487": 3328,
      "1136": 3329,
      "2303": 3330,
      "858": 3331,
      "15332.dat": 3332,
      "64647.dat": 3333,
      "274.dat": 3334,
      "700.dat": 3335,
      "2719.dat": 3336,
      "4217.dat": 3337,
      "3464.dat": 3338,
      "2571.dat": 3339,
      "90398.dat": 3340,
      "1279": 3341,
      "61904.dat": 3342,
      "1153": 3343,
      "4869.dat": 3344,
      "24482.dat": 3345,
      "893": 3346,
      "4598.dat": 3347,
      "4868.dat": 3348,
      "15038.dat": 3349,
      "939.dat": 3350,
      "6074": 3351,
      "6074343": 3352,
      "1001": 3353,
      "1176": 3354,
      "4622303": 3355,
      "30140.dat": 3356,
      "1336": 3357,
      "923": 3358,
      "1177": 3359,
      "3861.dat": 3360,
      "30031.dat": 3361,
      "2348.dat": 3362,
      "3000": 3363,
      "1072": 3364,
      "39793.dat": 3365,
      "1302": 3366,
      "996": 3367,
      "18671.dat": 3368,
      "4504.dat": 3369,
      "982": 3370,
      "933.dat": 3371,
      "92693.dat": 3372,
      "3582.dat": 3373,
      "1680": 3374,
      "4857.dat": 3375,
      "6187.dat": 3376,
      "1055": 3377,
      "1524": 3378,
      "1522": 3379,
      "1145": 3380,
      "3049.dat": 3381,
      "30360.dat": 3382,
      "4006.dat": 3383,
      "2349.dat": 3384,
      "90194.dat": 3385,
      "43719.dat": 3386,
      "903": 3387,
      "3846.dat": 3388,
      "30008.dat": 3389,
      "11213.dat": 3390,
      "9648": 3391,
      "987": 3392,
      "15254.dat": 3393,
      "4856.dat": 3394,
      "4449.dat": 3395,
      "283.dat": 3396,
      "2705.dat": 3397,
      "57515.dat": 3398,
      "3961.dat": 3399,
      "955": 3400,
      "1457": 3401,
      "1445": 3402,
      "1449": 3403,
      "90498.dat": 3404,
      "4588.dat": 3405,
      "1454": 3406,
      "64392.dat": 3407,
      "3403.dat": 3408,
      "30157.dat": 3409,
      "907": 3410,
      "91.dat": 3411,
      "2701.dat": 3412,
      "1061": 3413,
      "4509.dat": 3414,
      "1430": 3415,
      "43711.dat": 3416,
      "1545": 3417,
      "1044": 3418,
      "977": 3419,
      "15459.dat": 3420,
      "56908.dat": 3421,
      "1444": 3422,
      "1494": 3423,
      "1504": 3424,
      "1012": 3425,
      "1521": 3426,
      "1458": 3427,
      "1475": 3428,
      "1265": 3429,
      "98282.dat": 3430,
      "1256": 3431,
      "6239.dat": 3432,
      "14413.dat": 3433,
      "2585.dat": 3434,
      "3247": 3435,
      "86652.dat": 3436,
      "5408": 3437,
      "972": 3438,
      "30540.dat": 3439,
      "u9320.dat": 3440,
      "761.dat": 3441,
      "87761.dat": 3442,
      "64682.dat": 3443,
      "1025": 3444,
      "927": 3445,
      "1002": 3446,
      "978": 3447,
      "57585.dat": 3448,
      "34816.dat": 3449,
      "32498.dat": 3450,
      "9778": 3451,
      "2700.dat": 3452,
      "759.dat": 3453,
      "6205.dat": 3454,
      "3777": 3455,
      "64680.dat": 3456,
      "917": 3457,
      "32069.dat": 3458,
      "1041": 3459,
      "1536": 3460,
      "1466": 3461,
      "1473": 3462,
      "1481": 3463,
      "1477": 3464,
      "1216": 3465,
      "1318": 3466,
      "60607.dat": 3467,
      "2714.dat": 3468,
      "2867.dat": 3469,
      "64394.dat": 3470,
      "56904.dat": 3471,
      "1262": 3472,
      "2625.dat": 3473,
      "43713.dat": 3474,
      "3936.dat": 3475,
      "2584.dat": 3476,
      "1576": 3477,
      "2607.dat": 3478,
      "93604.dat": 3479,
      "3054": 3480,
      "18976.dat": 3481,
      "30541.dat": 3482,
      "41897.dat": 3483,
      "974": 3484,
      "95228.dat": 3485,
      "30499.dat": 3486,
      "1453": 3487,
      "954": 3488,
      "1217": 3489,
      "1139": 3490,
      "3061.dat": 3491,
      "2266": 3492,
      "61345.dat": 3493,
      "3730.dat": 3494,
      "37775.dat": 3495,
      "42445.dat": 3496,
      "1057": 3497,
      "6120.dat": 3498,
      "1048": 3499,
      "1043": 3500,
      "1125": 3501,
      "11833.dat": 3502,
      "60476.dat": 3503,
      "1081": 3504,
      "15571.dat": 3505,
      "2566.dat": 3506,
      "1005": 3507,
      "e.dat": 3508,
      "6264.dat": 3509,
      "3935.dat": 3510,
      "967": 3511,
      "32474.dat": 3512,
      "1474": 3513,
      "8952": 3514,
      "6579.dat": 3515,
      "1084": 3516,
      "2437.dat": 3517,
      "505.dat": 3518,
      "30229.dat": 3519,
      "10201.dat": 3520,
      "60700.dat": 3521,
      "55615.dat": 3522,
      "58124.dat": 3523,
      "3066.dat": 3524,
      "6016.dat": 3525,
      "4528.dat": 3526,
      "60616b.dat": 3527,
      "2577.dat": 3528,
      "2447.dat": 3529,
      "5689": 3530,
      "56891.dat": 3531,
      "50949.dat": 3532,
      "3835.dat": 3533,
      "501.dat": 3534,
      "52501.dat": 3535,
      "32294.dat": 3536,
      "1424": 3537,
      "7049.dat": 3538,
      "1045": 3539,
      "998": 3540,
      "30179.dat": 3541,
      "1033": 3542,
      "1518": 3543,
      "1526": 3544,
      "1438": 3545,
      "1462": 3546,
      "1003": 3547,
      "1006": 3548,
      "1209": 3549,
      "994": 3550,
      "92695.dat": 3551,
      "30375.dat": 3552,
      "6160.dat": 3553,
      "2418.dat": 3554,
      "4267.dat": 3555,
      "2593.dat": 3556,
      "1488": 3557,
      "56902.dat": 3558,
      "51011.dat": 3559,
      "u9100.dat": 3560,
      "1720": 3561,
      "4770.dat": 3562,
      "u9101.dat": 3563,
      "1067": 3564,
      "1464": 3565,
      "57894.dat": 3566,
      "2857.dat": 3567,
      "92696.dat": 3568,
      "2484.dat": 3569,
      "2717.dat": 3570,
      "43710.dat": 3571,
      "727.dat": 3572,
      "6580.dat": 3573,
      "64727.dat": 3574,
      "93061.dat": 3575,
      "24122.dat": 3576,
      "902.dat": 3577,
      "22667.dat": 3578,
      "43712.dat": 3579,
      "43892.dat": 3580,
      "3217": 3581,
      "u936": 3582,
      "289.dat": 3583,
      "397.dat": 3584,
      "6583.dat": 3585,
      "1650": 3586,
      "1158": 3587,
      "1175": 3588,
      "67.dat": 3589,
      "899": 3590,
      "1688": 3591,
      "1093": 3592,
      "1448": 3593,
      "1498": 3594,
      "1452": 3595,
      "1482": 3596,
      "1461": 3597,
      "1298": 3598,
      "3740.dat": 3599,
      "1315": 3600,
      "1198": 3601,
      "46667.dat": 3602,
      "18974.dat": 3603,
      "2546.dat": 3604,
      "1499": 3605,
      "1112": 3606,
      "95343.dat": 3607,
      "70501": 3608,
      "1015": 3609,
      "44225.dat": 3610,
      "6590.dat": 3611,
      "1254": 3612,
      "f.dat": 3613,
      "1168": 3614,
      "981": 3615,
      "3067.dat": 3616,
      "11610.dat": 3617,
      "24505.dat": 3618,
      "18980.dat": 3619,
      "62274.dat": 3620,
      "30249.dat": 3621,
      "4100": 3622,
      "4100418": 3623,
      "1063": 3624,
      "1509": 3625,
      "4210.dat": 3626,
      "2496.dat": 3627,
      "1840": 3628,
      "41854.dat": 3629,
      "18759.dat": 3630,
      "8597": 3631,
      "85975.dat": 3632,
      "3404.dat": 3633,
      "966": 3634,
      "41765.dat": 3635,
      "93595.dat": 3636,
      "989": 3637,
      "49673.dat": 3638,
      "1361": 3639,
      "u1126.dat": 3640,
      "1519": 3641,
      "3688.dat": 3642,
      "41764.dat": 3643,
      "1031": 3644,
      "1511": 3645,
      "15204": 3646,
      "1976": 3647,
      "1465": 3648,
      "1495": 3649,
      "1463": 3650,
      "1491": 3651,
      "1291": 3652,
      "393.dat": 3653,
      "1505": 3654,
      "1506": 3655,
      "76289.dat": 3656,
      "1370": 3657,
      "6115204": 3658,
      "30340.dat": 3659,
      "1191": 3660,
      "1241": 3661,
      "43720.dat": 3662,
      "6539.dat": 3663,
      "44224.dat": 3664,
      "3014": 3665,
      "1169": 3666,
      "35.dat": 3667,
      "19119.dat": 3668,
      "30395.dat": 3669,
      "76019.dat": 3670,
      "1309": 3671,
      "1690": 3672,
      "3736.dat": 3673,
      "3739.dat": 3674,
      "1285": 3675,
      "30258.dat": 3676,
      "753.dat": 3677,
      "62360.dat": 3678,
      "u1125.dat": 3679,
      "3849.dat": 3680,
      "61780.dat": 3681,
      "47753.dat": 3682,
      "1089": 3683,
      "3900.dat": 3684,
      "1850": 3685,
      "1149": 3686,
      "3817.dat": 3687,
      "4036.dat": 3688,
      "288.dat": 3689,
      "313.dat": 3690,
      "1210": 3691,
      "76766.dat": 3692,
      "172.dat": 3693,
      "1079": 3694,
      "1326": 3695,
      "98397.dat": 3696,
      "3612.dat": 3697,
      "975": 3698,
      "1027": 3699,
      "1098": 3700,
      "1218": 3701,
      "1205": 3702,
      "1102": 3703,
      "88393.dat": 3704,
      "2356.dat": 3705,
      "41679.dat": 3706,
      "1185": 3707,
      "60598.dat": 3708,
      "3019": 3709,
      "22385.dat": 3710,
      "1403": 3711,
      "6118.dat": 3712,
      "2530.dat": 3713,
      "92690.dat": 3714,
      "54086.dat": 3715,
      "991": 3716,
      "43721.dat": 3717,
      "3787.dat": 3718,
      "3644.dat": 3719,
      "2039.dat": 3720,
      "30033.dat": 3721,
      "4858.dat": 3722,
      "22888.dat": 3723,
      "15469.dat": 3724,
      "4343.dat": 3725,
      "4474.dat": 3726,
      "4697a.dat": 3727,
      "254.dat": 3728,
      "61.dat": 3729,
      "11950.dat": 3730,
      "4816": 3731,
      "57877.dat": 3732,
      "711.dat": 3733,
      "1426": 3734,
      "85941.dat": 3735,
      "4288.dat": 3736,
      "181.dat": 3737,
      "3939.dat": 3738,
      "2900.dat": 3739,
      "2479.dat": 3740,
      "99012.dat": 3741,
      "1429": 3742,
      "4591.dat": 3743,
      "1039": 3744,
      "1656": 3745,
      "1076": 3746,
      "1517": 3747,
      "1523": 3748,
      "1492": 3749,
      "1446": 3750,
      "1348": 3751,
      "1780": 3752,
      "244.dat": 3753,
      "6572.dat": 3754,
      "6183.dat": 3755,
      "661.dat": 3756,
      "44661.dat": 3757,
      "2401.dat": 3758,
      "1065": 3759,
      "9240": 3760,
      "1411": 3761,
      "87081.dat": 3762,
      "1437": 3763,
      "76116.dat": 3764,
      "1359": 3765,
      "6546.dat": 3766,
      "6045": 3767,
      "13548.dat": 3768,
      "821420": 3769,
      "22.dat": 3770,
      "64225.dat": 3771,
      "22484.dat": 3772,
      "58181.dat": 3773,
      "3134.dat": 3774,
      "95344.dat": 3775,
      "30159.dat": 3776,
      "1660": 3777,
      "1990": 3778,
      "1042": 3779,
      "15b.dat": 3780,
      "6445": 3781,
      "64711.dat": 3782,
      "1009": 3783,
      "1074": 3784,
      "3816.dat": 3785,
      "9241": 3786,
      "92411.dat": 3787,
      "568.dat": 3788,
      "33078.dat": 3789,
      "7107": 3790,
      "3208": 3791,
      "1920": 3792,
      "1018": 3793,
      "5398": 3794,
      "1156": 3795,
      "1620": 3796,
      "1666": 3797,
      "1082": 3798,
      "1467": 3799,
      "1105": 3800,
      "1311": 3801,
      "1193": 3802,
      "50955.dat": 3803,
      "92912.dat": 3804,
      "1512": 3805,
      "1556": 3806,
      "72454.dat": 3807,
      "2994.dat": 3808,
      "1970": 3809,
      "15303.dat": 3810,
      "1115": 3811,
      "62743.dat": 3812,
      "2421.dat": 3813,
      "89522.dat": 3814,
      "1600": 3815,
      "27261.dat": 3816,
      "2527.dat": 3817,
      "1212": 3818,
      "4849": 3819,
      "1374": 3820,
      "32125.dat": 3821,
      "61485.dat": 3822,
      "4475.dat": 3823,
      "1580": 3824,
      "50254.dat": 3825,
      "957": 3826,
      "23.dat": 3827,
      "70023.dat": 3828,
      "E|>": 3829,
      "VE|>": 3830,
      "6154.dat": 3831,
      "43121.dat": 3832,
      "3299.dat": 3833,
      "2922": 3834,
      "2580.dat": 3835,
      "2815.dat": 3836,
      "6573.dat": 3837,
      "32177.dat": 3838,
      "3852.dat": 3839,
      "64781.dat": 3840,
      "4360.dat": 3841,
      "53989.dat": 3842,
      "0046": 3843,
      "1515": 3844,
      "1447": 3845,
      "1206": 3846,
      "1502": 3847,
      "1507": 3848,
      "1116": 3849,
      "1329": 3850,
      "1346": 3851,
      "10314.dat": 3852,
      "i.dat": 3853,
      "407.dat": 3854,
      "2927.dat": 3855,
      "18939.dat": 3856,
      "61068.dat": 3857,
      "41749.dat": 3858,
      "9883": 3859,
      "3731.dat": 3860,
      "98835.dat": 3861,
      "113.dat": 3862,
      "2533.dat": 3863,
      "g.dat": 3864,
      "1382": 3865,
      "85959.dat": 3866,
      "5355": 3867,
      "53551.dat": 3868,
      "62113.dat": 3869,
      "6041.dat": 3870,
      "62712.dat": 3871,
      "56898.dat": 3872,
      "4594.dat": 3873,
      "46212.dat": 3874,
      "30043.dat": 3875,
      "30259.dat": 3876,
      "1830": 3877,
      "3585.dat": 3878,
      "2439.dat": 3879,
      "55978.dat": 3880,
      "2529.dat": 3881,
      "92908.dat": 3882,
      "30554.dat": 3883,
      "73037.dat": 3884,
      "35789.dat": 3885,
      "901.dat": 3886,
      "52901.dat": 3887,
      "2706.dat": 3888,
      "1146": 3889,
      "6495": 3890,
      "87414.dat": 3891,
      "64951.dat": 3892,
      "48288.dat": 3893,
      "4202.dat": 3894,
      "3149.dat": 3895,
      "973": 3896,
      "30283.dat": 3897,
      "1306": 3898,
      "6256.dat": 3899,
      "400.dat": 3900,
      "41750.dat": 3901,
      "12939.dat": 3902,
      "2704.dat": 3903,
      "2515b.dat": 3904,
      "4212.dat": 3905,
      "1316": 3906,
      "4861.dat": 3907,
      "1179": 3908,
      "2741.dat": 3909,
      "44822.dat": 3910,
      "2399.dat": 3911,
      "6268.dat": 3912,
      "1165": 3913,
      "1144": 3914,
      "1013": 3915,
      "1023": 3916,
      "1021": 3917,
      "1451": 3918,
      "1227": 3919,
      "1275": 3920,
      "1276": 3921,
      "1128": 3922,
      "1143": 3923,
      "1155": 3924,
      "2796.dat": 3925,
      "44771.dat": 3926,
      "2508.dat": 3927,
      "3848.dat": 3928,
      "30176.dat": 3929,
      "30141.dat": 3930,
      "3652.dat": 3931,
      "02.dat": 3932,
      "61072.dat": 3933,
      "3865.dat": 3934,
      "1414": 3935,
      "2120": 3936,
      "125.dat": 3937,
      "1870": 3938,
      "33125.dat": 3939,
      "7930.dat": 3940,
      "50956.dat": 3941,
      "73090.dat": 3942,
      "1106": 3943,
      "32020.dat": 3944,
      "6108.dat": 3945,
      "2865.dat": 3946,
      "48496.dat": 3947,
      "1134": 3948,
      "76768.dat": 3949,
      "1095": 3950,
      "3754.dat": 3951,
      "3321": 3952,
      "33211.dat": 3953,
      "2464.dat": 3954,
      "6083.dat": 3955,
      "2695.dat": 3956,
      "4219.dat": 3957,
      "4485.dat": 3958,
      "1386": 3959,
      "2871.dat": 3960,
      "74.dat": 3961,
      "2795.dat": 3962,
      "1148": 3963,
      "7343": 3964,
      "983": 3965,
      "1073": 3966,
      "73435.dat": 3967,
      "47755.dat": 3968,
      "314.dat": 3969,
      "1234": 3970,
      "1590": 3971,
      "4347.dat": 3972,
      "32083.dat": 3973,
      "4728.dat": 3974,
      "3842.dat": 3975,
      "4746.dat": 3976,
      "1059": 3977,
      "1497": 3978,
      "32932.dat": 3979,
      "1252": 3980,
      "1273": 3981,
      "1221": 3982,
      "15092.dat": 3983,
      "1324": 3984,
      "1337": 3985,
      "1338": 3986,
      "2903.dat": 3987,
      "1142": 3988,
      "1249": 3989,
      "271.dat": 3990,
      "3755.dat": 3991,
      "58119.dat": 3992,
      "86208.dat": 3993,
      "3579.dat": 3994,
      "bc01.dat": 3995,
      "47456.dat": 3996,
      "u9102.dat": 3997,
      "504.dat": 3998,
      "72504.dat": 3999,
      "93094.dat": 4000,
      "1107": 4001,
      "4530.dat": 4002,
      "1127": 4003,
      "6218.dat": 4004,
      "1674": 4005,
      "64448.dat": 4006,
      "1b.dat": 4007,
      "370.dat": 4008,
      "374.dat": 4009,
      "98374.dat": 4010,
      "2495.dat": 4011,
      "4185": 4012,
      "1516": 4013,
      "41855.dat": 4014,
      "2516.dat": 4015,
      "3649.dat": 4016,
      "1131": 4017,
      "4168.dat": 4018,
      "170.dat": 4019,
      "33172.dat": 4020,
      "47455.dat": 4021,
      "4497.dat": 4022,
      "1192": 4023,
      "9582": 4024,
      "95829.dat": 4025,
      "1087": 4026,
      "2702.dat": 4027,
      "308.dat": 4028,
      "1208": 4029,
      "24118.dat": 4030,
      "15400.dat": 4031,
      "1683": 4032,
      "2463.dat": 4033,
      "33057.dat": 4034,
      "cp": 4035,
      "3867.dat": 4036,
      "3245cp": 4037,
      "3245cpz": 4038,
      "30132.dat": 4039,
      "6048.dat": 4040,
      "2865": 4041,
      "2422.dat": 4042,
      "28653.dat": 4043,
      "583.dat": 4044,
      "2561.dat": 4045,
      "3496.dat": 4046,
      "55299.dat": 4047,
      "ac01.dat": 4048,
      "6079.dat": 4049,
      "4489.dat": 4050,
      "95832.dat": 4051,
      "1325": 4052,
      "1616": 4053,
      "1046": 4054,
      "1068": 4055,
      "1085": 4056,
      "32535.dat": 4057,
      "1236": 4058,
      "1258": 4059,
      "1763": 4060,
      "1135": 4061,
      "62271.dat": 4062,
      "1199": 4063,
      "35459.dat": 4064,
      "44861.dat": 4065,
      "1373": 4066,
      "13731.dat": 4067,
      "65426.dat": 4068,
      "171.dat": 4069,
      "93348.dat": 4070,
      "3828.dat": 4071,
      "40620.dat": 4072,
      "55296.dat": 4073,
      "64648.dat": 4074,
      "19121.dat": 4075,
      "701.dat": 4076,
      "92107.dat": 4077,
      "62701.dat": 4078,
      "6064.dat": 4079,
      "1187": 4080,
      "1213": 4081,
      "4169.dat": 4082,
      "2468.dat": 4083,
      "32012.dat": 4084,
      "41532.dat": 4085,
      "1204": 4086,
      "1196": 4087,
      "48723.dat": 4088,
      "1174": 4089,
      "55300.dat": 4090,
      "1640": 4091,
      "48169.dat": 4092,
      "1117": 4093,
      "4023.dat": 4094,
      "11291.dat": 4095,
      "55297.dat": 4096,
      "40379.dat": 4097,
      "350.dat": 4098,
      "41893.dat": 4099,
      "32534.dat": 4100,
      "8851": 4101,
      "88517.dat": 4102,
      "3586.dat": 4103,
      "2076": 4104,
      "51.dat": 4105,
      "3639.dat": 4106,
      "6255.dat": 4107,
      "2572.dat": 4108,
      "52038.dat": 4109,
      "44308.dat": 4110,
      "2876.dat": 4111,
      "89201.dat": 4112,
      "57909.dat": 4113,
      "40244.dat": 4114,
      "87617.dat": 4115,
      "2342.dat": 4116,
      "4715.dat": 4117,
      "60616a.dat": 4118,
      "55298.dat": 4119,
      "60219.dat": 4120,
      "93594.dat": 4121,
      "1700": 4122,
      "1026": 4123,
      "4529.dat": 4124,
      "1376": 4125,
      "h.dat": 4126,
      "1097": 4127,
      "6046": 4128,
      "1493": 4129,
      "1232": 4130,
      "1277": 4131,
      "36752": 4132,
      "2793.dat": 4133,
      "27448": 4134,
      "263.dat": 4135,
      "1503": 4136,
      "767.dat": 4137,
      "1332": 4138,
      "1141": 4139,
      "1388": 4140,
      "1396": 4141,
      "18938.dat": 4142,
      "1313": 4143,
      "47223": 4144,
      "51266.dat": 4145,
      "36752a.dat": 4146,
      "27448.dat": 4147,
      "14682.dat": 4148,
      "191915i.dat": 4149,
      "1154": 4150,
      "49283.dat": 4151,
      "4523.dat": 4152,
      "2579.dat": 4153,
      "2536.dat": 4154,
      "2497.dat": 4155,
      "1164": 4156,
      "55295.dat": 4157,
      "3223": 4158,
      "61480.dat": 4159,
      "1053": 4160,
      "2440.dat": 4161,
      "33051.dat": 4162,
      "30699.dat": 4163,
      "1918": 4164,
      "4228.dat": 4165,
      "909": 4166,
      "196.dat": 4167,
      "54196.dat": 4168,
      "1109": 4169,
      "59230.dat": 4170,
      "8200.dat": 4171,
      "u8200.dat": 4172,
      "11208.dat": 4173,
      "30389.dat": 4174,
      "1274": 4175,
      "986": 4176,
      "64453.dat": 4177,
      "1307": 4178,
      "82.dat": 4179,
      "1029": 4180,
      "2483.dat": 4181,
      "1207": 4182,
      "46144": 4183,
      "40902.dat": 4184,
      "129.dat": 4185,
      "73129.dat": 4186,
      "61510.dat": 4187,
      "u93": 4188,
      "3240": 4189,
      "2617.dat": 4190,
      "9188": 4191,
      "30407.dat": 4192,
      "u9103.dat": 4193,
      "91884.dat": 4194,
      "1137": 4195,
      "92402.dat": 4196,
      "6238.dat": 4197,
      "1035": 4198,
      "18942.dat": 4199,
      "11399.dat": 4200,
      "1257": 4201,
      "47720.dat": 4202,
      "30387.dat": 4203,
      "3186.dat": 4204,
      "32074.dat": 4205,
      "30274.dat": 4206,
      "3847.dat": 4207,
      "2907.dat": 4208,
      "65429.dat": 4209,
      "48933.dat": 4210,
      "13564.dat": 4211,
      "9209": 4212,
      "92099.dat": 4213,
      "1069": 4214,
      "90370.dat": 4215,
      "6585.dat": 4216,
      "1184": 4217,
      "56890.dat": 4218,
      "16091.dat": 4219,
      "6082.dat": 4220,
      "30151.dat": 4221,
      "3144.dat": 4222,
      "2475.dat": 4223,
      "2379": 4224,
      "44.dat": 4225,
      "f1.dat": 4226,
      "2067": 4227,
      "40243.dat": 4228,
      "1934": 4229,
      "1419": 4230,
      "729.dat": 4231,
      "1271": 4232,
      "1238": 4233,
      "1222": 4234,
      "1255": 4235,
      "2796": 4236,
      "1744": 4237,
      "6540.dat": 4238,
      "1101": 4239,
      "1103": 4240,
      "2919.dat": 4241,
      "2998.dat": 4242,
      "68568.dat": 4243,
      "41680.dat": 4244,
      "35044.dat": 4245,
      "38014.dat": 4246,
      "1161": 4247,
      "1162": 4248,
      "1398": 4249,
      "2745.dat": 4250,
      "30362.dat": 4251,
      "49618.dat": 4252,
      "99774.dat": 4253,
      "41681.dat": 4254,
      "191915c.dat": 4255,
      "39794.dat": 4256,
      "168315": 4257,
      "23799.dat": 4258,
      "27965.dat": 4259,
      "4760.dat": 4260,
      "2066": 4261,
      "1108": 4262,
      "15279.dat": 4263,
      "32235.dat": 4264,
      "4320.dat": 4265,
      "6080": 4266,
      "1806": 4267,
      "2164": 4268,
      "242.dat": 4269,
      "97781.dat": 4270,
      "131.dat": 4271,
      "u9131.dat": 4272,
      "1051": 4273,
      "85940.dat": 4274,
      "2904.dat": 4275,
      "3187.dat": 4276,
      "18940.dat": 4277,
      "4071.dat": 4278,
      "5306.dat": 4279,
      "61482.dat": 4280,
      "50946.dat": 4281,
      "1119": 4282,
      "4719.dat": 4283,
      "821410": 4284,
      "2040.dat": 4285,
      "2823.dat": 4286,
      "71076.dat": 4287,
      "1610": 4288,
      "95827.dat": 4289,
      "60800": 4290,
      "1779": 4291,
      "2539.dat": 4292,
      "2583.dat": 4293,
      "2999.dat": 4294,
      "41766.dat": 4295,
      "30191": 4296,
      "30191k": 4297,
      "30193.dat": 4298,
      "784.dat": 4299,
      "2507.dat": 4300,
      "6159.dat": 4301,
      "30b.dat": 4302,
      "148.dat": 4303,
      "3230b.dat": 4304,
      "60603.dat": 4305,
      "1810": 4306,
      "78a.dat": 4307,
      "245.dat": 4308,
      "1007": 4309,
      "766.dat": 4310,
      "30057.dat": 4311,
      "1334": 4312,
      "2144": 4313,
      "3010": 4314,
      "1114": 4315,
      "60212.dat": 4316,
      "2922a.dat": 4317,
      "2696.dat": 4318,
      "61487.dat": 4319,
      "58380.dat": 4320,
      "1047": 4321,
      "2397.dat": 4322,
      "41762.dat": 4323,
      "93160.dat": 4324,
      "779.dat": 4325,
      "53586.dat": 4326,
      "44292.dat": 4327,
      "1558": 4328,
      "2997.dat": 4329,
      "4755.dat": 4330,
      "95828.dat": 4331,
      "18978a.dat": 4332,
      "2560.dat": 4333,
      "1078": 4334,
      "00458": 4335,
      "1989": 4336,
      "4761.dat": 4337,
      "4762.dat": 4338,
      "004589": 4339,
      "3629.dat": 4340,
      "30385.dat": 4341,
      "1379": 4342,
      "2394": 4343,
      "1038": 4344,
      "1077": 4345,
      "1583": 4346,
      "1237": 4347,
      "1225": 4348,
      "1299": 4349,
      "1267": 4350,
      "2832": 4351,
      "58120.dat": 4352,
      "1750": 4353,
      "59350.dat": 4354,
      "1501": 4355,
      "1508": 4356,
      "4435": 4357,
      "1308": 4358,
      "1132": 4359,
      "1111": 4360,
      "6212.dat": 4361,
      "1312": 4362,
      "1358": 4363,
      "1339": 4364,
      "1381": 4365,
      "1385": 4366,
      "1327": 4367,
      "1182": 4368,
      "1347": 4369,
      "1391": 4370,
      "1399": 4371,
      "1151": 4372,
      "44882.dat": 4373,
      "16577.dat": 4374,
      "47224.dat": 4375,
      "48310.dat": 4376,
      "2621.dat": 4377,
      "6254.dat": 4378,
      "4742.dat": 4379,
      "30041.dat": 4380,
      "93609.dat": 4381,
      "61903.dat": 4382,
      "604552.dat": 4383,
      "604615.dat": 4384,
      "98284.dat": 4385,
      "704.dat": 4386,
      "1820": 4387,
      "3640.dat": 4388,
      "385.dat": 4389,
      "98281.dat": 4390,
      "4151.dat": 4391,
      "198.dat": 4392,
      "1292": 4393,
      "92198.dat": 4394,
      "76260.dat": 4395,
      "30208.dat": 4396,
      "6571.dat": 4397,
      "4222": 4398,
      "4222a.dat": 4399,
      "1670": 4400,
      "1201": 4401,
      "93593.dat": 4402,
      "76250.dat": 4403,
      "25893.dat": 4404,
      "4738.dat": 4405,
      "6061.dat": 4406,
      "4727.dat": 4407,
      "3491.dat": 4408,
      "783.dat": 4409,
      "57783.dat": 4410,
      "4732.dat": 4411,
      "3042.dat": 4412,
      "30070.dat": 4413,
      "604.dat": 4414,
      "57028": 4415,
      "44675.dat": 4416,
      "71075.dat": 4417,
      "30069.dat": 4418,
      "9284": 4419,
      "2428.dat": 4420,
      "3008": 4421,
      "4209.dat": 4422,
      "92842.dat": 4423,
      "3613.dat": 4424,
      "7366": 4425,
      "2415.dat": 4426,
      "3834.dat": 4427,
      "73664.dat": 4428,
      "30592.dat": 4429,
      "1094": 4430,
      "461390": 4431,
      "821420b.dat": 4432,
      "4613906": 4433,
      "821410d.dat": 4434,
      "004695": 4435,
      "94148.dat": 4436,
      "97782.dat": 4437,
      "2699.dat": 4438,
      "18975.dat": 4439,
      "95831.dat": 4440,
      "92409.dat": 4441,
      "42.dat": 4442,
      "97784.dat": 4443,
      "3901.dat": 4444,
      "30106.dat": 4445,
      "793.dat": 4446,
      "2426.dat": 4447,
      "2916.dat": 4448,
      "317.dat": 4449,
      "30155.dat": 4450,
      "725.dat": 4451,
      "98989.dat": 4452,
      "94725.dat": 4453,
      "20309.dat": 4454,
      "1062": 4455,
      "1086": 4456,
      "2681.dat": 4457,
      "54087.dat": 4458,
      "401.dat": 4459,
      "2710.dat": 4460,
      "2709.dat": 4461,
      "3597.dat": 4462,
      "10187.dat": 4463,
      "1542": 4464,
      "15429.dat": 4465,
      "1248": 4466,
      "2122": 4467,
      "64449.dat": 4468,
      "9712": 4469,
      "k.dat": 4470,
      "202.dat": 4471,
      "1083": 4472,
      "1075": 4473,
      "40345.dat": 4474,
      "1566": 4475,
      "60614": 4476,
      "1416": 4477,
      "1432": 4478,
      "7295": 4479,
      "1219": 4480,
      "1233": 4481,
      "1885": 4482,
      "90202.dat": 4483,
      "38583.dat": 4484,
      "6578.dat": 4485,
      "1303": 4486,
      "1305": 4487,
      "1171": 4488,
      "1172": 4489,
      "98568.dat": 4490,
      "999": 4491,
      "99499.dat": 4492,
      "99784.dat": 4493,
      "421.dat": 4494,
      "24093.dat": 4495,
      "2104": 4496,
      "2337": 4497,
      "1129": 4498,
      "11272.dat": 4499,
      "1364": 4500,
      "1369": 4501,
      "15210.dat": 4502,
      "1384": 4503,
      "4106332": 4504,
      "1195": 4505,
      "1186": 4506,
      "1349": 4507,
      "1163": 4508,
      "1393": 4509,
      "32007.dat": 4510,
      "1173": 4511,
      "4844.dat": 4512,
      "6208.dat": 4513,
      "41838.dat": 4514,
      "27938.dat": 4515,
      "24324.dat": 4516,
      "98285.dat": 4517,
      "4967295": 4518,
      "3194.dat": 4519,
      "3195.dat": 4520,
      "35654.dat": 4521,
      "2941.dat": 4522,
      "2313": 4523,
      "6135.dat": 4524,
      "87693.dat": 4525,
      "6881b.dat": 4526,
      "4713.dat": 4527,
      "42918.dat": 4528,
      "4294967295": 4529,
      "64570.dat": 4530,
      "62930.dat": 4531,
      "9244.dat": 4532,
      "89523.dat": 4533,
      "2922b.dat": 4534,
      "28326.dat": 4535,
      "21229.dat": 4536,
      "97122.dat": 4537,
      "60614.dat": 4538,
      "2020": 4539,
      "88704.dat": 4540,
      "1852": 4541,
      "48170.dat": 4542,
      "18920.dat": 4543,
      "4b.dat": 4544,
      "32004b.dat": 4545,
      "2145.dat": 4546,
      "381.dat": 4547,
      "58381.dat": 4548,
      "1231": 4549,
      "4037": 4550,
      "40378.dat": 4551,
      "6576.dat": 4552,
      "60806.dat": 4553,
      "28809.dat": 4554,
      "1630": 4555,
      "926.dat": 4556,
      "4208.dat": 4557,
      "30194.dat": 4558,
      "266.dat": 4559,
      "1407": 4560,
      "2642.dat": 4561,
      "347.dat": 4562,
      "98347.dat": 4563,
      "73436.dat": 4564,
      "4088.dat": 4565,
      "1203": 4566,
      "2918.dat": 4567,
      "3844.dat": 4568,
      "1124": 4569,
      "2216": 4570,
      "3229b.dat": 4571,
      "48168.dat": 4572,
      "2655.dat": 4573,
      "u91": 4574,
      "4757.dat": 4575,
      "32528.dat": 4576,
      "61481.dat": 4577,
      "1421": 4578,
      "2703.dat": 4579,
      "32310.dat": 4580,
      "6562.dat": 4581,
      "45301.dat": 4582,
      "30150.dat": 4583,
      "74967.dat": 4584,
      "563.dat": 4585,
      "1344": 4586,
      "61927.dat": 4587,
      "191915d.dat": 4588,
      "2376.dat": 4589,
      "96489.dat": 4590,
      "4614415": 4591,
      "6219.dat": 4592,
      "1123": 4593,
      "1367": 4594,
      "2542.dat": 4595,
      "30029.dat": 4596,
      "u9068.dat": 4597,
      "64451.dat": 4598,
      "2716.dat": 4599,
      "55817.dat": 4600,
      "3081ac01.dat": 4601,
      "18910.dat": 4602,
      "451.dat": 4603,
      "1986": 4604,
      "1966": 4605,
      "92250.dat": 4606,
      "o.dat": 4607,
      "2400.dat": 4608,
      "2036": 4609,
      "2886": 4610,
      "35563.dat": 4611,
      "6062886": 4612,
      "5159": 4613,
      "u800": 4614,
      "4332.dat": 4615,
      "58827.dat": 4616,
      "191915b.dat": 4617,
      "51595.dat": 4618,
      "4065": 4619,
      "194065": 4620,
      "1317": 4621,
      "4221.dat": 4622,
      "2708.dat": 4623,
      "1684": 4624,
      "502.dat": 4625,
      "2713.dat": 4626,
      "44772.dat": 4627,
      "6069.dat": 4628,
      "422.dat": 4629,
      "30010.dat": 4630,
      "22886.dat": 4631,
      "1011": 4632,
      "3614.dat": 4633,
      "2917.dat": 4634,
      "276.dat": 4635,
      "6217.dat": 4636,
      "71184.dat": 4637,
      "4424.dat": 4638,
      "30337.dat": 4639,
      "38317.dat": 4640,
      "53401.dat": 4641,
      "3137.dat": 4642,
      "2537.dat": 4643,
      "4774.dat": 4644,
      "93550.dat": 4645,
      "73312.dat": 4646,
      "1152": 4647,
      "1244": 4648,
      "1178": 4649,
      "85.dat": 4650,
      "BU": 4651,
      "u94": 4652,
      "<|BU": 4653,
      "1672": 4654,
      "1696": 4655,
      "1676": 4656,
      "1099": 4657,
      "2460": 4658,
      "6058.dat": 4659,
      "146.dat": 4660,
      "1423": 4661,
      "1211": 4662,
      "1269": 4663,
      "1289": 4664,
      "18171.dat": 4665,
      "92926.dat": 4666,
      "48171.dat": 4667,
      "6592.dat": 4668,
      "1401": 4669,
      "1406": 4670,
      "1409": 4671,
      "1133": 4672,
      "98263.dat": 4673,
      "99146.dat": 4674,
      "8456": 4675,
      "45729.dat": 4676,
      "1371": 4677,
      "1335": 4678,
      "87421.dat": 4679,
      "2318": 4680,
      "4132.dat": 4681,
      "33085.dat": 4682,
      "2562.dat": 4683,
      "1383": 4684,
      "u939": 4685,
      "1321": 4686,
      "1183": 4687,
      "1189": 4688,
      "1242": 4689,
      "1395": 4690,
      "1357": 4691,
      "42448.dat": 4692,
      "65414.dat": 4693,
      "4694.dat": 4694,
      "51270.dat": 4695,
      "6046.dat": 4696,
      "4133.dat": 4697,
      "6288456": 4698,
      "93096.dat": 4699,
      "12885.dat": 4700,
      "96483.dat": 4701,
      "96481.dat": 4702,
      "70501a.dat": 4703,
      "47223a": 4704,
      "23949.dat": 4705,
      "24607.dat": 4706,
      "59718": 4707,
      "70278.dat": 4708,
      "2790.dat": 4709,
      "2610.dat": 4710,
      "164365": 4711,
      "30089.dat": 4712,
      "2707.dat": 4713,
      "70501b.dat": 4714,
      "8495": 4715,
      "84954.dat": 4716,
      "24308": 4717,
      "2518.dat": 4718,
      "1301": 4719,
      "76385.dat": 4720,
      "46413.dat": 4721,
      "4626.dat": 4722,
      "4023": 4723,
      "6066.dat": 4724,
      "1264": 4725,
      "40234.dat": 4726,
      "4739.dat": 4727,
      "3188.dat": 4728,
      "41879.dat": 4729,
      "453.dat": 4730,
      "3488.dat": 4731,
      "4790.dat": 4732,
      "1869": 4733,
      "2620.dat": 4734,
      "2635.dat": 4735,
      "2046": 4736,
      "4072.dat": 4737,
      "191895": 4738,
      "479.dat": 4739,
      "96479.dat": 4740,
      "90397.dat": 4741,
      "1816": 4742,
      "220.dat": 4743,
      "u8001b.dat": 4744,
      "787.dat": 4745,
      "3315.dat": 4746,
      "2797.dat": 4747,
      "4207.dat": 4748,
      "3240b.dat": 4749,
      "bd": 4750,
      "j.dat": 4751,
      "192.dat": 4752,
      "28192.dat": 4753,
      "61800.dat": 4754,
      "15460.dat": 4755,
      "61070.dat": 4756,
      "30256.dat": 4757,
      "2698.dat": 4758,
      "6630.dat": 4759,
      "40001.dat": 4760,
      "32003.dat": 4761,
      "50303.dat": 4762,
      "3841.dat": 4763,
      "4498.dat": 4764,
      "47407.dat": 4765,
      "97783.dat": 4766,
      "1392": 4767,
      "70501c.dat": 4768,
      "4845": 4769,
      "4597.dat": 4770,
      "3896.dat": 4771,
      "3127.dat": 4772,
      "3481.dat": 4773,
      "2680.dat": 4774,
      "2609.dat": 4775,
      "32527.dat": 4776,
      "6152.dat": 4777,
      "004695b.dat": 4778,
      "71137.dat": 4779,
      "21445.dat": 4780,
      "3317.dat": 4781,
      "2408.dat": 4782,
      "3474.dat": 4783,
      "1268": 4784,
      "2554.dat": 4785,
      "2488.dat": 4786,
      "u9363.dat": 4787,
      "4617.dat": 4788,
      "12799.dat": 4789,
      "3324.dat": 4790,
      "96485.dat": 4791,
      "1412": 4792,
      "3148.dat": 4793,
      "18646.dat": 4794,
      "4598": 4795,
      "2441.dat": 4796,
      "45982.dat": 4797,
      "73194": 4798,
      "73194c01.dat": 4799,
      "5037": 4800,
      "92583.dat": 4801,
      "50373.dat": 4802,
      "3189.dat": 4803,
      "290.dat": 4804,
      "6177.dat": 4805,
      "1261": 4806,
      "54869.dat": 4807,
      "48452.dat": 4808,
      "1342": 4809,
      "2626.dat": 4810,
      "70358.dat": 4811,
      "2128": 4812,
      "2178": 4813,
      "2146": 4814,
      "2147": 4815,
      "2173": 4816,
      "33008.dat": 4817,
      "32496.dat": 4818,
      "32495.dat": 4819,
      "5542": 4820,
      "6106": 4821,
      "m.dat": 4822,
      "n.dat": 4823,
      "p02.dat": 4824,
      "3017": 4825,
      "1617": 4826,
      "1664": 4827,
      "1686": 4828,
      "2010": 4829,
      "2080": 4830,
      "2064": 4831,
      "2093": 4832,
      "2051": 4833,
      "1538": 4834,
      "1584": 4835,
      "1586": 4836,
      "15302.dat": 4837,
      "15301.dat": 4838,
      "7194": 4839,
      "71952.dat": 4840,
      "71183.dat": 4841,
      "1924": 4842,
      "1988": 4843,
      "1997": 4844,
      "247.dat": 4845,
      "2411": 4846,
      "1434": 4847,
      "32183.dat": 4848,
      "5092": 4849,
      "50451.dat": 4850,
      "1224": 4851,
      "1228": 4852,
      "1226": 4853,
      "1239": 4854,
      "1284": 4855,
      "1287": 4856,
      "1281": 4857,
      "1880": 4858,
      "1814": 4859,
      "1884": 4860,
      "188.dat": 4861,
      "9291": 4862,
      "1715": 4863,
      "1748": 4864,
      "1785": 4865,
      "1781": 4866,
      "1741": 4867,
      "2619": 4868,
      "32060.dat": 4869,
      "39367": 4870,
      "44352.dat": 4871,
      "1408": 4872,
      "2000": 4873,
      "1602": 4874,
      "2555": 4875,
      "53178.dat": 4876,
      "64276.dat": 4877,
      "64290.dat": 4878,
      "1807": 4879,
      "2220": 4880,
      "u9265.dat": 4881,
      "u9211.dat": 4882,
      "76244.dat": 4883,
      "87585.dat": 4884,
      "2204": 4885,
      "2109": 4886,
      "2356": 4887,
      "1122": 4888,
      "42716.dat": 4889,
      "1147": 4890,
      "2166": 4891,
      "2169": 4892,
      "2244": 4893,
      "1323": 4894,
      "1197": 4895,
      "1181": 4896,
      "1188": 4897,
      "1728": 4898,
      "1351": 4899,
      "3897.dat": 4900,
      "1157": 4901,
      "2123": 4902,
      "2396": 4903,
      "23800.dat": 4904,
      "61071.dat": 4905,
      "2525.dat": 4906,
      "2686.dat": 4907,
      "2995.dat": 4908,
      "2996.dat": 4909,
      "6567.dat": 4910,
      "2944.dat": 4911,
      "28660.dat": 4912,
      "73071.dat": 4913,
      "64898.dat": 4914,
      "60454": 4915,
      "6156.dat": 4916,
      "40232.dat": 4917,
      "32298.dat": 4918,
      "30246.dat": 4919,
      "11949.dat": 4920,
      "32191.dat": 4921,
      "32195.dat": 4922,
      "32197.dat": 4923,
      "32196.dat": 4924,
      "6035.dat": 4925,
      "61738.dat": 4926,
      "44569.dat": 4927,
      "22969.dat": 4928,
      "92910.dat": 4929,
      "15391.dat": 4930,
      "86500.dat": 4931,
      "32188.dat": 4932,
      "6074343k.dat": 4933,
      "u9364.dat": 4934,
      "u9365.dat": 4935,
      "u9366.dat": 4936,
      "4100418c.dat": 4937,
      "4100418f.dat": 4938,
      "6115204e.dat": 4939,
      "6115204f.dat": 4940,
      "6115204g.dat": 4941,
      "30144.dat": 4942,
      "821420c.dat": 4943,
      "004677": 4944,
      "47223a.dat": 4945,
      "60800b.dat": 4946,
      "30191k01.dat": 4947,
      "44353.dat": 4948,
      "18853.dat": 4949,
      "4106332a.dat": 4950,
      "22169.dat": 4951,
      "u9471.dat": 4952,
      "55423.dat": 4953,
      "61069.dat": 4954,
      "30173.dat": 4955,
      "71944.dat": 4956,
      "50923.dat": 4957,
      "92911.dat": 4958,
      "39367p02.dat": 4959,
      "1564": 4960,
      "241.dat": 4961,
      "185.dat": 4962,
      "3087": 4963,
      "168185": 4964,
      "168185a.dat": 4965,
      "58121.dat": 4966,
      "27928.dat": 4967,
      "62700.dat": 4968,
      "795.dat": 4969,
      "6117.dat": 4970,
      "61406.dat": 4971,
      "10169.dat": 4972,
      "6216.dat": 4973,
      "28779.dat": 4974,
      "47759.dat": 4975,
      "10288.dat": 4976,
      "1295": 4977,
      "42060.dat": 4978,
      "57028a.dat": 4979,
      "1996": 4980,
      "2280": 4981,
      "751.dat": 4982,
      "87751.dat": 4983,
      "3596.dat": 4984,
      "15392.dat": 4985,
      "48245.dat": 4986,
      "6248.dat": 4987,
      "64450.dat": 4988,
      "11153.dat": 4989,
      "3028": 4990,
      "2792.dat": 4991,
      "501bc01.dat": 4992,
      "30285.dat": 4993,
      "1851": 4994,
      "1768": 4995,
      "6002.dat": 4996,
      "6104.dat": 4997,
      "30093.dat": 4998,
      "4611.dat": 4999,
      "5869": 5000,
      "6255869": 5001,
      "1214": 5002,
      "311.dat": 5003,
      "u9311.dat": 5004,
      "30042.dat": 5005,
      "2951.dat": 5006,
      "54821.dat": 5007,
      "1987": 5008,
      "004589f.dat": 5009,
      "4867.dat": 5010,
      "6074343j.dat": 5011,
      "3213": 5012,
      "4289.dat": 5013,
      "2112": 5014,
      "168.dat": 5015,
      "93168.dat": 5016,
      "3461.dat": 5017,
      "2448.dat": 5018,
      "27150.dat": 5019,
      "6123.dat": 5020,
      "50948.dat": 5021,
      "1394": 5022,
      "5086": 5023,
      "93092.dat": 5024,
      "2183": 5025,
      "30211.dat": 5026,
      "2526.dat": 5027,
      "566.dat": 5028,
      "64566.dat": 5029,
      "70501d.dat": 5030,
      "60800a.dat": 5031,
      "2409.dat": 5032,
      "3081bc01.dat": 5033,
      "3480.dat": 5034,
      "75902.dat": 5035,
      "13971.dat": 5036,
      "604553.dat": 5037,
      "30191k02.dat": 5038,
      "004589e.dat": 5039,
      "32180.dat": 5040,
      "u915": 5041,
      "32181.dat": 5042,
      "2531.dat": 5043,
      "99301.dat": 5044,
      "42061.dat": 5045,
      "329.dat": 5046,
      "67329.dat": 5047,
      "2443.dat": 5048,
      "2694.dat": 5049,
      "2056": 5050,
      "32165.dat": 5051,
      "25375": 5052,
      "6595.dat": 5053,
      "25375k": 5054,
      "1682": 5055,
      "1942": 5056,
      "2712.dat": 5057,
      "57779.dat": 5058,
      "2467.dat": 5059,
      "87611.dat": 5060,
      "35442.dat": 5061,
      "4508.dat": 5062,
      "1624": 5063,
      "2350.dat": 5064,
      "11209.dat": 5065,
      "30178.dat": 5066,
      "1730": 5067,
      "4499.dat": 5068,
      "6056.dat": 5069,
      "6936.dat": 5070,
      "279.dat": 5071,
      "127.dat": 5072,
      "30292.dat": 5073,
      "15209.dat": 5074,
      "92585.dat": 5075,
      "4341.dat": 5076,
      "2570.dat": 5077,
      "4319.dat": 5078,
      "63.dat": 5079,
      "608.dat": 5080,
      "2046.dat": 5081,
      "u9132.dat": 5082,
      "61483.dat": 5083,
      "15587.dat": 5084,
      "2060": 5085,
      "2524.dat": 5086,
      "52036.dat": 5087,
      "u9158.dat": 5088,
      "4170.dat": 5089,
      "1611": 5090,
      "6155.dat": 5091,
      "74698.dat": 5092,
      "98834.dat": 5093,
      "9225": 5094,
      "1904": 5095,
      "2351.dat": 5096,
      "4714.dat": 5097,
      "1626": 5098,
      "6153.dat": 5099,
      "CR": 5100,
      "<|CR": 5101,
      "10047": 5102,
      "197905": 5103,
      "23798.dat": 5104,
      "32802.dat": 5105,
      "60621.dat": 5106,
      "2435.dat": 5107,
      "2874.dat": 5108,
      "96490.dat": 5109,
      "1362": 5110,
      "1159": 5111,
      "2175": 5112,
      "6441": 5113,
      "l.dat": 5114,
      "0034": 5115,
      "1681": 5116,
      "2055": 5117,
      "1037": 5118,
      "1544": 5119,
      "1912": 5120,
      "1952": 5121,
      "2440": 5122,
      "2432": 5123,
      "2431": 5124,
      "2494": 5125,
      "2476": 5126,
      "2449": 5127,
      "1435": 5128,
      "1413": 5129,
      "32f.dat": 5130,
      "508.dat": 5131,
      "1229": 5132,
      "30056.dat": 5133,
      "30065.dat": 5134,
      "92220.dat": 5135,
      "1732": 5136,
      "177.dat": 5137,
      "1733": 5138,
      "47508.dat": 5139,
      "2500": 5140,
      "2557": 5141,
      "2573.dat": 5142,
      "1138": 5143,
      "9836": 5144,
      "96482.dat": 5145,
      "1905": 5146,
      "2230": 5147,
      "22127.dat": 5148,
      "99c01.dat": 5149,
      "1704": 5150,
      "76279.dat": 5151,
      "87989.dat": 5152,
      "69729.dat": 5153,
      "974.dat": 5154,
      "97793.dat": 5155,
      "28870.dat": 5156,
      "1365": 5157,
      "168265": 5158,
      "44042.dat": 5159,
      "1389": 5160,
      "4201.dat": 5161,
      "1328": 5162,
      "1343": 5163,
      "1246": 5164,
      "2587.dat": 5165,
      "50990.dat": 5166,
      "21459.dat": 5167,
      "2283": 5168,
      "47899c01.dat": 5169,
      "2947.dat": 5170,
      "6251.dat": 5171,
      "3245bd": 5172,
      "41763.dat": 5173,
      "86035.dat": 5174,
      "60658.dat": 5175,
      "6267.dat": 5176,
      "30154.dat": 5177,
      "30169.dat": 5178,
      "76324.dat": 5179,
      "95658.dat": 5180,
      "90630.dat": 5181,
      "88516.dat": 5182,
      "96484.dat": 5183,
      "32175.dat": 5184,
      "32084.dat": 5185,
      "13252.dat": 5186,
      "44351.dat": 5187,
      "21755.dat": 5188,
      "64417.dat": 5189,
      "003432f.dat": 5190,
      "3245bdq": 5191,
      "1790": 5192,
      "4750.dat": 5193,
      "22889.dat": 5194,
      "s8.dat": 5195,
      "92241.dat": 5196,
      "3536": 5197,
      "32307.dat": 5198,
      "88422.dat": 5199,
      "2670.dat": 5200,
      "792.dat": 5201,
      "1066": 5202,
      "6059.dat": 5203,
      "1703": 5204,
      "30372.dat": 5205,
      "4521703": 5206,
      "164365c.dat": 5207,
      "7016": 5208,
      "70163.dat": 5209,
      "3058.dat": 5210,
      "22973.dat": 5211,
      "4496.dat": 5212,
      "30366.dat": 5213,
      "87615.dat": 5214,
      "2774.dat": 5215,
      "u9026.dat": 5216,
      "1314": 5217,
      "30358.dat": 5218,
      "821430": 5219,
      "191895o.dat": 5220,
      "821430a.dat": 5221,
      "8881": 5222,
      "88811.dat": 5223,
      "30388.dat": 5224,
      "2622.dat": 5225,
      "11062.dat": 5226,
      "u.dat": 5227,
      "24593.dat": 5228,
      "57028d.dat": 5229,
      "4521703u.dat": 5230,
      "59a.dat": 5231,
      "3314.dat": 5232,
      "004659a.dat": 5233,
      "747.dat": 5234,
      "87747.dat": 5235,
      "30192.dat": 5236,
      "1431": 5237,
      "2924": 5238,
      "3190.dat": 5239,
      "30370.dat": 5240,
      "3240a.dat": 5241,
      "u820": 5242,
      "3135.dat": 5243,
      "96486.dat": 5244,
      "2248": 5245,
      "13349.dat": 5246,
      "4223.dat": 5247,
      "93792.dat": 5248,
      "164.dat": 5249,
      "44350.dat": 5250,
      "50861.dat": 5251,
      "1353": 5252,
      "24308b.dat": 5253,
      "1548": 5254,
      "4318.dat": 5255,
      "73666.dat": 5256,
      "c02.dat": 5257,
      "1853": 5258,
      "2347.dat": 5259,
      "95.dat": 5260,
      "3557": 5261,
      "24308a.dat": 5262,
      "35574.dat": 5263,
      "f2.dat": 5264,
      "u9310.dat": 5265,
      "1404": 5266,
      "92589.dat": 5267,
      "1571": 5268,
      "170872": 5269,
      "957.dat": 5270,
      "170872a.dat": 5271,
      "16646.dat": 5272,
      "3462.dat": 5273,
      "837.dat": 5274,
      "2636.dat": 5275,
      "3961": 5276,
      "2041.dat": 5277,
      "22977.dat": 5278,
      "39613.dat": 5279,
      "1215": 5280,
      "657.dat": 5281,
      "2791.dat": 5282,
      "908.dat": 5283,
      "251.dat": 5284,
      "9690": 5285,
      "57908.dat": 5286,
      "820674": 5287,
      "1910": 5288,
      "60657.dat": 5289,
      "30228.dat": 5290,
      "1534": 5291,
      "182.dat": 5292,
      "87695.dat": 5293,
      "2130": 5294,
      "2086": 5295,
      "1876": 5296,
      "u5": 5297,
      "u9313.dat": 5298,
      "97787.dat": 5299,
      "1860": 5300,
      "9226": 5301,
      "47994.dat": 5302,
      "92262.dat": 5303,
      "6040.dat": 5304,
      "61254.dat": 5305,
      "142.dat": 5306,
      "u9142.dat": 5307,
      "2559.dat": 5308,
      "15790.dat": 5309,
      "96480.dat": 5310,
      "92252.dat": 5311,
      "2274": 5312,
      "9325": 5313,
      "164365a.dat": 5314,
      "22749.dat": 5315,
      "458.dat": 5316,
      "4089.dat": 5317,
      "7ac01.dat": 5318,
      "2557.dat": 5319,
      "3183.dat": 5320,
      "25375k02.dat": 5321,
      "2389": 5322,
      "33061.dat": 5323,
      "41.dat": 5324,
      "420.dat": 5325,
      "43708.dat": 5326,
      "512.dat": 5327,
      "6177": 5328,
      "97.dat": 5329,
      "9247": 5330,
      "9564": 5331,
      "q.dat": 5332,
      "s13": 5333,
      "706.dat": 5334,
      "30925.dat": 5335,
      "30103.dat": 5336,
      "30209.dat": 5337,
      "30342.dat": 5338,
      "30400.dat": 5339,
      "1614": 5340,
      "1628": 5341,
      "1633": 5342,
      "1662": 5343,
      "1652": 5344,
      "1695": 5345,
      "1677": 5346,
      "2071": 5347,
      "2047": 5348,
      "2088": 5349,
      "2033": 5350,
      "2075": 5351,
      "2042": 5352,
      "2085": 5353,
      "104.dat": 5354,
      "1091": 5355,
      "10172.dat": 5356,
      "1533": 5357,
      "1574": 5358,
      "1594": 5359,
      "1579": 5360,
      "1543": 5361,
      "807.dat": 5362,
      "713.dat": 5363,
      "1971": 5364,
      "1914": 5365,
      "199.dat": 5366,
      "1944": 5367,
      "1984": 5368,
      "1973": 5369,
      "1945": 5370,
      "1995": 5371,
      "1923": 5372,
      "2470": 5373,
      "2475": 5374,
      "2446": 5375,
      "2484": 5376,
      "2442": 5377,
      "2413": 5378,
      "2487": 5379,
      "24120.dat": 5380,
      "60455": 5381,
      "1417": 5382,
      "1422": 5383,
      "32251.dat": 5384,
      "506.dat": 5385,
      "72706.dat": 5386,
      "123.dat": 5387,
      "1297": 5388,
      "1800": 5389,
      "1819": 5390,
      "1824": 5391,
      "1856": 5392,
      "1898": 5393,
      "1843": 5394,
      "1855": 5395,
      "1881": 5396,
      "18352.dat": 5397,
      "90201.dat": 5398,
      "2737.dat": 5399,
      "28974.dat": 5400,
      "30036.dat": 5401,
      "30088.dat": 5402,
      "30063.dat": 5403,
      "92586.dat": 5404,
      "92254.dat": 5405,
      "92263.dat": 5406,
      "487.dat": 5407,
      "30212.dat": 5408,
      "30213.dat": 5409,
      "30261.dat": 5410,
      "6685": 5411,
      "6631.dat": 5412,
      "5814": 5413,
      "5874": 5414,
      "58177.dat": 5415,
      "58123.dat": 5416,
      "1724": 5417,
      "1747": 5418,
      "1762": 5419,
      "1793": 5420,
      "1776": 5421,
      "1786": 5422,
      "1755": 5423,
      "2691": 5424,
      "2634.dat": 5425,
      "54120.dat": 5426,
      "599.dat": 5427,
      "59807.dat": 5428,
      "3980.dat": 5429,
      "3978": 5430,
      "6573": 5431,
      "65151": 5432,
      "1405": 5433,
      "2928.dat": 5434,
      "2009": 5435,
      "3518": 5436,
      "35188.dat": 5437,
      "1606": 5438,
      "4758.dat": 5439,
      "4737.dat": 5440,
      "47712.dat": 5441,
      "47713.dat": 5442,
      "2500.dat": 5443,
      "882.dat": 5444,
      "64390": 5445,
      "11100.dat": 5446,
      "30613.dat": 5447,
      "98385.dat": 5448,
      "522.dat": 5449,
      "1902": 5450,
      "1909": 5451,
      "4698.dat": 5452,
      "46303.dat": 5453,
      "46882.dat": 5454,
      "1805": 5455,
      "18041.dat": 5456,
      "2290": 5457,
      "2228": 5458,
      "2213": 5459,
      "22172.dat": 5460,
      "9945": 5461,
      "93247.dat": 5462,
      "4512.dat": 5463,
      "1708": 5464,
      "743.dat": 5465,
      "765.dat": 5466,
      "1319": 5467,
      "1372": 5468,
      "240.dat": 5469,
      "49743.dat": 5470,
      "6972": 5471,
      "2208": 5472,
      "95188.dat": 5473,
      "95199.dat": 5474,
      "112.dat": 5475,
      "11299.dat": 5476,
      "2309": 5477,
      "51342.dat": 5478,
      "1363": 5479,
      "2726.dat": 5480,
      "2727ac01.dat": 5481,
      "18450.dat": 5482,
      "11455.dat": 5483,
      "1387": 5484,
      "4204.dat": 5485,
      "u9283.dat": 5486,
      "u9397.dat": 5487,
      "u9288.dat": 5488,
      "u9487.dat": 5489,
      "2242": 5490,
      "1322": 5491,
      "13269.dat": 5492,
      "49098.dat": 5493,
      "11955.dat": 5494,
      "2351": 5495,
      "1341": 5496,
      "1247": 5497,
      "1166": 5498,
      "1397": 5499,
      "54091.dat": 5500,
      "54095.dat": 5501,
      "1725": 5502,
      "2199": 5503,
      "2261": 5504,
      "4486.dat": 5505,
      "19466.dat": 5506,
      "41798": 5507,
      "1375": 5508,
      "1377": 5509,
      "6549.dat": 5510,
      "65416.dat": 5511,
      "48812.dat": 5512,
      "1719": 5513,
      "2366": 5514,
      "2684.dat": 5515,
      "2742.dat": 5516,
      "24314.dat": 5517,
      "2623.dat": 5518,
      "2294": 5519,
      "20310.dat": 5520,
      "65617.dat": 5521,
      "4629.dat": 5522,
      "2942.dat": 5523,
      "6055874": 5524,
      "2375": 5525,
      "30516.dat": 5526,
      "33492.dat": 5527,
      "26910.dat": 5528,
      "64897.dat": 5529,
      "4744.dat": 5530,
      "41530.dat": 5531,
      "41948.dat": 5532,
      "35578.dat": 5533,
      "61403.dat": 5534,
      "6126972": 5535,
      "14707.dat": 5536,
      "43337.dat": 5537,
      "6063.dat": 5538,
      "6067.dat": 5539,
      "57792.dat": 5540,
      "93090.dat": 5541,
      "6265.dat": 5542,
      "74948.dat": 5543,
      "87601.dat": 5544,
      "30382.dat": 5545,
      "11609.dat": 5546,
      "95654.dat": 5547,
      "95673.dat": 5548,
      "32189.dat": 5549,
      "61484.dat": 5550,
      "191915e.dat": 5551,
      "191915g.dat": 5552,
      "191915h.dat": 5553,
      "90395.dat": 5554,
      "93552.dat": 5555,
      "6074343i.dat": 5556,
      "6074343g.dat": 5557,
      "6074343h.dat": 5558,
      "6074343m.dat": 5559,
      "6074343l.dat": 5560,
      "4622303a.dat": 5561,
      "4622303h.dat": 5562,
      "4622303k.dat": 5563,
      "4622303o.dat": 5564,
      "4622303q.dat": 5565,
      "32475.dat": 5566,
      "97785.dat": 5567,
      "10051.dat": 5568,
      "32174.dat": 5569,
      "4100418d.dat": 5570,
      "4100418e.dat": 5571,
      "6115204b.dat": 5572,
      "6115204c.dat": 5573,
      "604550.dat": 5574,
      "604548.dat": 5575,
      "821420d.dat": 5576,
      "48495.dat": 5577,
      "604614.dat": 5578,
      "4614425": 5579,
      "168315e.dat": 5580,
      "60803.dat": 5581,
      "6062886b.dat": 5582,
      "6062886a.dat": 5583,
      "169685": 5584,
      "6288456a.dat": 5585,
      "59718c.dat": 5586,
      "59718d.dat": 5587,
      "191895n.dat": 5588,
      "604549.dat": 5589,
      "604547.dat": 5590,
      "004677b.dat": 5591,
      "004677a.dat": 5592,
      "6255869b.dat": 5593,
      "32133.dat": 5594,
      "15444.dat": 5595,
      "98368.dat": 5596,
      "168265a.dat": 5597,
      "35366.dat": 5598,
      "6177949": 5599,
      "92474.dat": 5600,
      "95646.dat": 5601,
      "s13a.dat": 5602,
      "604551.dat": 5603,
      "66857.dat": 5604,
      "26913.dat": 5605,
      "39789.dat": 5606,
      "65734.dat": 5607,
      "64390.dat": 5608,
      "99455.dat": 5609,
      "6055874a.dat": 5610,
      "75979.dat": 5611,
      "93251.dat": 5612,
      "2619.dat": 5613,
      "61100.dat": 5614,
      "821420a.dat": 5615,
      "64288.dat": 5616,
      "6119.dat": 5617,
      "2855.dat": 5618,
      "1895": 5619,
      "42074.dat": 5620,
      "15561.dat": 5621,
      "68013.dat": 5622,
      "1569": 5623,
      "791.dat": 5624,
      "97791.dat": 5625,
      "2014": 5626,
      "30079.dat": 5627,
      "u58": 5628,
      "1938": 5629,
      "4507.dat": 5630,
      "u588.dat": 5631,
      "4220.dat": 5632,
      "4094": 5633,
      "92245.dat": 5634,
      "4493.dat": 5635,
      "7676": 5636,
      "549.dat": 5637,
      "98549.dat": 5638,
      "76764.dat": 5639,
      "4866.dat": 5640,
      "89762.dat": 5641,
      "958.dat": 5642,
      "30035.dat": 5643,
      "1936": 5644,
      "1705": 5645,
      "32080.dat": 5646,
      "19220.dat": 5647,
      "509.dat": 5648,
      "1577": 5649,
      "3471.dat": 5650,
      "4284.dat": 5651,
      "11091.dat": 5652,
      "47973.dat": 5653,
      "194065e.dat": 5654,
      "s7.dat": 5655,
      "26912.dat": 5656,
      "3087c.dat": 5657,
      "820674a.dat": 5658,
      "u608.dat": 5659,
      "1645": 5660,
      "143.dat": 5661,
      "92244.dat": 5662,
      "91143.dat": 5663,
      "164575": 5664,
      "838.dat": 5665,
      "94.dat": 5666,
      "32172.dat": 5667,
      "3436.dat": 5668,
      "821421": 5669,
      "821421a.dat": 5670,
      "721.dat": 5671,
      "4876.dat": 5672,
      "98721.dat": 5673,
      "3359.dat": 5674,
      "bd01.dat": 5675,
      "2924bd01.dat": 5676,
      "32134.dat": 5677,
      "6150": 5678,
      "1868": 5679,
      "61506.dat": 5680,
      "90509.dat": 5681,
      "30082.dat": 5682,
      "9510": 5683,
      "u9013.dat": 5684,
      "4175": 5685,
      "1946": 5686,
      "30094.dat": 5687,
      "34337.dat": 5688,
      "41751.dat": 5689,
      "19467.dat": 5690,
      "50340": 5691,
      "1867": 5692,
      "50340.dat": 5693,
      "30384.dat": 5694,
      "1978": 5695,
      "30396.dat": 5696,
      "u9106.dat": 5697,
      "u9316.dat": 5698,
      "1710": 5699,
      "42608.dat": 5700,
      "55707": 5701,
      "30394.dat": 5702,
      "4100418b.dat": 5703,
      "32186.dat": 5704,
      "u9119.dat": 5705,
      "30170.dat": 5706,
      "33121.dat": 5707,
      "997.dat": 5708,
      "3587.dat": 5709,
      "004695d.dat": 5710,
      "6093.dat": 5711,
      "4479.dat": 5712,
      "15540.dat": 5713,
      "4344.dat": 5714,
      "808.dat": 5715,
      "71182.dat": 5716,
      "62808.dat": 5717,
      "1582": 5718,
      "1854": 5719,
      "6158.dat": 5720,
      "3087bc01.dat": 5721,
      "30245.dat": 5722,
      "93590.dat": 5723,
      "2323": 5724,
      "2375.dat": 5725,
      "1595": 5726,
      "47998.dat": 5727,
      "556.dat": 5728,
      "2513.dat": 5729,
      "18892.dat": 5730,
      "96488.dat": 5731,
      "33009.dat": 5732,
      "61073.dat": 5733,
      "15a.dat": 5734,
      "1892": 5735,
      "25375k01.dat": 5736,
      "194215a.dat": 5737,
      "4518.dat": 5738,
      "2563.dat": 5739,
      "97790.dat": 5740,
      "30045.dat": 5741,
      "30022.dat": 5742,
      "10050.dat": 5743,
      "4238.dat": 5744,
      "96907.dat": 5745,
      "736.dat": 5746,
      "2512.dat": 5747,
      "170876": 5748,
      "24014.dat": 5749,
      "4342.dat": 5750,
      "11301.dat": 5751,
      "u9315.dat": 5752,
      "170876a.dat": 5753,
      "u8201.dat": 5754,
      "92851.dat": 5755,
      "70026.dat": 5756,
      "73590.dat": 5757,
      "3240bc01.dat": 5758,
      "821410a.dat": 5759,
      "27257.dat": 5760,
      "u516.dat": 5761,
      "6329": 5762,
      "0044": 5763,
      "4106329": 5764,
      "004490": 5765,
      "18838.dat": 5766,
      "u9105.dat": 5767,
      "2856.dat": 5768,
      "190265": 5769,
      "u9317.dat": 5770,
      "22463.dat": 5771,
      "790.dat": 5772,
      "u9215.dat": 5773,
      "421148": 5774,
      "63324.dat": 5775,
      "4211483.dat": 5776,
      "A|>": 5777,
      "NA|>": 5778,
      "4491": 5779,
      "367.dat": 5780,
      "3878.dat": 5781,
      "58367.dat": 5782,
      "80276.dat": 5783,
      "2470.dat": 5784,
      "1866": 5785,
      "33122.dat": 5786,
      "2336.dat": 5787,
      "4461.dat": 5788,
      "88289.dat": 5789,
      "2586.dat": 5790,
      "2408": 5791,
      "4482.dat": 5792,
      "41837.dat": 5793,
      "98280.dat": 5794,
      "4244": 5795,
      "204.dat": 5796,
      "362.dat": 5797,
      "1770": 5798,
      "17010.dat": 5799,
      "u9204.dat": 5800,
      "3145.dat": 5801,
      "30135.dat": 5802,
      "96487.dat": 5803,
      "4244362.dat": 5804,
      "1555": 5805,
      "3979.dat": 5806,
      "4570": 5807,
      "947a.dat": 5808,
      "42531.dat": 5809,
      "4613": 5810,
      "4613905": 5811,
      "92338": 5812,
      "4491a.dat": 5813,
      "1632": 5814,
      "3898.dat": 5815,
      "30083.dat": 5816,
      "1352": 5817,
      "2159": 5818,
      "2145": 5819,
      "2282": 5820,
      "2276": 5821,
      "3351": 5822,
      "43.dat": 5823,
      "4152": 5824,
      "5922": 5825,
      "6192": 5826,
      "75.dat": 5827,
      "7150": 5828,
      "7308": 5829,
      "7155": 5830,
      "7597": 5831,
      "86.dat": 5832,
      "9322": 5833,
      "990.dat": 5834,
      "9274": 5835,
      "ad": 5836,
      "ap": 5837,
      "ec01.dat": 5838,
      "r.dat": 5839,
      "s.dat": 5840,
      "t.dat": 5841,
      "u810": 5842,
      "7064": 5843,
      "7083": 5844,
      "7049": 5845,
      "005.dat": 5846,
      "3030": 5847,
      "3049": 5848,
      "30a.dat": 5849,
      "30183.dat": 5850,
      "30185.dat": 5851,
      "1619": 5852,
      "161.dat": 5853,
      "1648": 5854,
      "1668": 5855,
      "1649": 5856,
      "16599.dat": 5857,
      "2054": 5858,
      "402.dat": 5859,
      "406.dat": 5860,
      "40242.dat": 5861,
      "40241.dat": 5862,
      "40240.dat": 5863,
      "1592": 5864,
      "1554": 5865,
      "1559": 5866,
      "1535": 5867,
      "1598": 5868,
      "1562": 5869,
      "1568": 5870,
      "1549": 5871,
      "1597": 5872,
      "801.dat": 5873,
      "71177.dat": 5874,
      "1972": 5875,
      "1928": 5876,
      "1983": 5877,
      "1975": 5878,
      "1974": 5879,
      "1982": 5880,
      "1977": 5881,
      "1991": 5882,
      "2450": 5883,
      "2499": 5884,
      "248.dat": 5885,
      "2495": 5886,
      "2477": 5887,
      "2441": 5888,
      "24599.dat": 5889,
      "6039.dat": 5890,
      "60797": 5891,
      "1415": 5892,
      "1427": 5893,
      "1428": 5894,
      "1425": 5895,
      "1433": 5896,
      "14c.dat": 5897,
      "3278.dat": 5898,
      "5098": 5899,
      "5068": 5900,
      "1266": 5901,
      "1259": 5902,
      "1283": 5903,
      "1293": 5904,
      "1223": 5905,
      "12897.dat": 5906,
      "363.dat": 5907,
      "1859": 5908,
      "18909.dat": 5909,
      "18973.dat": 5910,
      "9046": 5911,
      "37308.dat": 5912,
      "2784": 5913,
      "286.dat": 5914,
      "2837.dat": 5915,
      "2826.dat": 5916,
      "2838.dat": 5917,
      "30073.dat": 5918,
      "30074.dat": 5919,
      "3833.dat": 5920,
      "92246.dat": 5921,
      "92249.dat": 5922,
      "92243.dat": 5923,
      "92242.dat": 5924,
      "92247.dat": 5925,
      "92240.dat": 5926,
      "30260.dat": 5927,
      "30272.dat": 5928,
      "30222.dat": 5929,
      "58150.dat": 5930,
      "58148.dat": 5931,
      "58247.dat": 5932,
      "1202": 5933,
      "2699": 5934,
      "32030.dat": 5935,
      "54271.dat": 5936,
      "54m.dat": 5937,
      "59363.dat": 5938,
      "442784": 5939,
      "651.dat": 5940,
      "11010.dat": 5941,
      "2950.dat": 5942,
      "2008": 5943,
      "35485.dat": 5944,
      "474.dat": 5945,
      "4784": 5946,
      "47974.dat": 5947,
      "47406.dat": 5948,
      "2556": 5949,
      "2528.dat": 5950,
      "2550.dat": 5951,
      "88286.dat": 5952,
      "645.dat": 5953,
      "64651.dat": 5954,
      "334.dat": 5955,
      "98393": 5956,
      "98383.dat": 5957,
      "621.dat": 5958,
      "6260.dat": 5959,
      "62711.dat": 5960,
      "46316": 5961,
      "46508": 5962,
      "2231": 5963,
      "99550": 5964,
      "67704.dat": 5965,
      "422699": 5966,
      "93140.dat": 5967,
      "93248.dat": 5968,
      "94161.dat": 5969,
      "769.dat": 5970,
      "7614c.dat": 5971,
      "87752.dat": 5972,
      "87621.dat": 5973,
      "49b.dat": 5974,
      "4324.dat": 5975,
      "4336.dat": 5976,
      "89801.dat": 5977,
      "6116.dat": 5978,
      "22020": 5979,
      "11256.dat": 5980,
      "2136": 5981,
      "6330a.dat": 5982,
      "41334.dat": 5983,
      "2906.dat": 5984,
      "2908.dat": 5985,
      "1368": 5986,
      "13670.dat": 5987,
      "168275": 5988,
      "33048.dat": 5989,
      "2564.dat": 5990,
      "19212.dat": 5991,
      "440512": 5992,
      "42020.dat": 5993,
      "42019.dat": 5994,
      "u9166.dat": 5995,
      "u9156": 5996,
      "u9165.dat": 5997,
      "u9393.dat": 5998,
      "u9401.dat": 5999,
      "u9005.dat": 6000,
      "u9402.dat": 6001,
      "u9474.dat": 6002,
      "4106330a.dat": 6003,
      "2327": 6004,
      "1355": 6005,
      "3762.dat": 6006,
      "2196": 6007,
      "25975.dat": 6008,
      "23986.dat": 6009,
      "18990.dat": 6010,
      "35443.dat": 6011,
      "1331": 6012,
      "117440512": 6013,
      "2385": 6014,
      "2386": 6015,
      "6543.dat": 6016,
      "1712": 6017,
      "98288.dat": 6018,
      "22972.dat": 6019,
      "21778.dat": 6020,
      "2943.dat": 6021,
      "2849.dat": 6022,
      "2847.dat": 6023,
      "2846.dat": 6024,
      "6588.dat": 6025,
      "2985.dat": 6026,
      "99798": 6027,
      "4497614c.dat": 6028,
      "44658.dat": 6029,
      "37316.dat": 6030,
      "87612.dat": 6031,
      "87614.dat": 6032,
      "39790.dat": 6033,
      "48724.dat": 6034,
      "32602.dat": 6035,
      "63971.dat": 6036,
      "501ac01.dat": 6037,
      "4331.dat": 6038,
      "6225.dat": 6039,
      "53454.dat": 6040,
      "58572.dat": 6041,
      "57900.dat": 6042,
      "6574.dat": 6043,
      "23444.dat": 6044,
      "32551.dat": 6045,
      "93059.dat": 6046,
      "50944.dat": 6047,
      "30163.dat": 6048,
      "30164.dat": 6049,
      "67140.dat": 6050,
      "57899.dat": 6051,
      "76348.dat": 6052,
      "64798.dat": 6053,
      "96491.dat": 6054,
      "63327.dat": 6055,
      "56903.dat": 6056,
      "44374.dat": 6057,
      "11303.dat": 6058,
      "11267.dat": 6059,
      "32185.dat": 6060,
      "10049.dat": 6061,
      "93551.dat": 6062,
      "30139.dat": 6063,
      "6074343b.dat": 6064,
      "6074343a.dat": 6065,
      "6074343c.dat": 6066,
      "6074343d.dat": 6067,
      "6074343n.dat": 6068,
      "6074343ec01.dat": 6069,
      "4622303c.dat": 6070,
      "4622303d.dat": 6071,
      "4622303e.dat": 6072,
      "4622303f.dat": 6073,
      "4622303i.dat": 6074,
      "4622303g.dat": 6075,
      "4622303bc01.dat": 6076,
      "4622303ac01.dat": 6077,
      "4622303j.dat": 6078,
      "4622303m.dat": 6079,
      "4622303n.dat": 6080,
      "4622303l.dat": 6081,
      "4622303r.dat": 6082,
      "4622303s.dat": 6083,
      "4622303t.dat": 6084,
      "30007.dat": 6085,
      "99617.dat": 6086,
      "u9367.dat": 6087,
      "u9368.dat": 6088,
      "4100418a.dat": 6089,
      "4100418i.dat": 6090,
      "4100418g.dat": 6091,
      "4100418h.dat": 6092,
      "6115204d.dat": 6093,
      "53982.dat": 6094,
      "168315b.dat": 6095,
      "3245cpz3.dat": 6096,
      "3245cpz4.dat": 6097,
      "3245cpz9.dat": 6098,
      "3245cpz2.dat": 6099,
      "3245cpz6.dat": 6100,
      "3245cpzb.dat": 6101,
      "3245cpza.dat": 6102,
      "32239.dat": 6103,
      "4614415b.dat": 6104,
      "u9338.dat": 6105,
      "u9390.dat": 6106,
      "168315a.dat": 6107,
      "168315c.dat": 6108,
      "168315d.dat": 6109,
      "168315f.dat": 6110,
      "168315g.dat": 6111,
      "168315h.dat": 6112,
      "30104.dat": 6113,
      "13793.dat": 6114,
      "28327.dat": 6115,
      "4613906b.dat": 6116,
      "4613906a.dat": 6117,
      "4613906c.dat": 6118,
      "4613906e.dat": 6119,
      "4613906h.dat": 6120,
      "4106332b.dat": 6121,
      "4106332c.dat": 6122,
      "u9180.dat": 6123,
      "4614415a.dat": 6124,
      "4614415c.dat": 6125,
      "4614415d.dat": 6126,
      "4614415e.dat": 6127,
      "4614415g.dat": 6128,
      "6062886c.dat": 6129,
      "194065b.dat": 6130,
      "194065a.dat": 6131,
      "u9412.dat": 6132,
      "23186.dat": 6133,
      "u9394.dat": 6134,
      "u9391.dat": 6135,
      "u9395.dat": 6136,
      "u9396.dat": 6137,
      "u9398.dat": 6138,
      "6288456b.dat": 6139,
      "6288456c.dat": 6140,
      "6288456d.dat": 6141,
      "6255869a.dat": 6142,
      "50862.dat": 6143,
      "92253.dat": 6144,
      "197905b.dat": 6145,
      "197905a.dat": 6146,
      "197905d.dat": 6147,
      "98369.dat": 6148,
      "168265b.dat": 6149,
      "3245bdq1.dat": 6150,
      "3245bdq2.dat": 6151,
      "3245bdq0.dat": 6152,
      "2924ad": 6153,
      "96904.dat": 6154,
      "u592.dat": 6155,
      "58149.dat": 6156,
      "58147.dat": 6157,
      "35189.dat": 6158,
      "35186.dat": 6159,
      "4179873.dat": 6160,
      "4179872.dat": 6161,
      "6126972b.dat": 6162,
      "6126972a.dat": 6163,
      "4614425b.dat": 6164,
      "4614425a.dat": 6165,
      "169685c.dat": 6166,
      "169685d.dat": 6167,
      "6177949c.dat": 6168,
      "6177949d.dat": 6169,
      "4094b.dat": 6170,
      "164575a.dat": 6171,
      "95109.dat": 6172,
      "18675.dat": 6173,
      "190265e.dat": 6174,
      "45705.dat": 6175,
      "4613905d.dat": 6176,
      "3351ap": 6177,
      "41529.dat": 6178,
      "59229.dat": 6179,
      "61929.dat": 6180,
      "71505.dat": 6181,
      "73081.dat": 6182,
      "71551.dat": 6183,
      "75974.dat": 6184,
      "93221.dat": 6185,
      "92746.dat": 6186,
      "u8101.dat": 6187,
      "70644.dat": 6188,
      "70834.dat": 6189,
      "70496.dat": 6190,
      "30304.dat": 6191,
      "30497.dat": 6192,
      "60797c02.dat": 6193,
      "50986.dat": 6194,
      "50687.dat": 6195,
      "90462.dat": 6196,
      "44278436": 6197,
      "47847.dat": 6198,
      "98393d.dat": 6199,
      "4631649b.dat": 6200,
      "4650854m.dat": 6201,
      "99550.dat": 6202,
      "4226995.dat": 6203,
      "168275a.dat": 6204,
      "u9156c02.dat": 6205,
      "2924ad01.dat": 6206,
      "3351ap01.dat": 6207,
      "u9140.dat": 6208,
      "2952.dat": 6209,
      "35365.dat": 6210,
      "1740": 6211,
      "87613.dat": 6212,
      "37776.dat": 6213,
      "3245cpzc.dat": 6214,
      "518.dat": 6215,
      "3492.dat": 6216,
      "13608.dat": 6217,
      "6577.dat": 6218,
      "2651.dat": 6219,
      "4503.dat": 6220,
      "30381.dat": 6221,
      "p.dat": 6222,
      "2544.dat": 6223,
      "6074343p.dat": 6224,
      "2236": 6225,
      "2337.dat": 6226,
      "30332.dat": 6227,
      "1985": 6228,
      "1862": 6229,
      "u9213.dat": 6230,
      "55707c.dat": 6231,
      "7039.dat": 6232,
      "30248.dat": 6233,
      "4587.dat": 6234,
      "30133.dat": 6235,
      "11089.dat": 6236,
      "194065d.dat": 6237,
      "3087cc01.dat": 6238,
      "7028.dat": 6239,
      "92692.dat": 6240,
      "4094a.dat": 6241,
      "1980": 6242,
      "1896": 6243,
      "41168": 6244,
      "2986.dat": 6245,
      "819.dat": 6246,
      "1861": 6247,
      "9257": 6248,
      "3973": 6249,
      "30171.dat": 6250,
      "4178.dat": 6251,
      "59718b.dat": 6252,
      "004490a.dat": 6253,
      "92579.dat": 6254,
      "39739.dat": 6255,
      "32190.dat": 6256,
      "4784.dat": 6257,
      "92756.dat": 6258,
      "526.dat": 6259,
      "87926.dat": 6260,
      "370526.dat": 6261,
      "2106": 6262,
      "21699.dat": 6263,
      "3245cpz8.dat": 6264,
      "47758.dat": 6265,
      "4099": 6266,
      "1826": 6267,
      "4511.dat": 6268,
      "2042.dat": 6269,
      "4613906d.dat": 6270,
      "40996.dat": 6271,
      "50860.dat": 6272,
      "u586.dat": 6273,
      "7112": 6274,
      "10509.dat": 6275,
      "194065c.dat": 6276,
      "71128.dat": 6277,
      "191936": 6278,
      "u9020.dat": 6279,
      "191936b.dat": 6280,
      "6197": 6281,
      "u9164.dat": 6282,
      "61976.dat": 6283,
      "4251": 6284,
      "1692": 6285,
      "4494.dat": 6286,
      "87616.dat": 6287,
      "53550.dat": 6288,
      "6255869c.dat": 6289,
      "164575g.dat": 6290,
      "42511.dat": 6291,
      "281.dat": 6292,
      "2424.dat": 6293,
      "30251.dat": 6294,
      "3358.dat": 6295,
      "190145": 6296,
      "190145a.dat": 6297,
      "1916": 6298,
      "2249": 6299,
      "3430.dat": 6300,
      "6074343o.dat": 6301,
      "55707b.dat": 6302,
      "30181.dat": 6303,
      "92590.dat": 6304,
      "2638.dat": 6305,
      "2044.dat": 6306,
      "30149.dat": 6307,
      "820674b.dat": 6308,
      "4106329b.dat": 6309,
      "4106329a.dat": 6310,
      "2b.dat": 6311,
      "4080.dat": 6312,
      "2614.dat": 6313,
      "78b.dat": 6314,
      "4875.dat": 6315,
      "93591.dat": 6316,
      "u8002b.dat": 6317,
      "95108.dat": 6318,
      "4116878b.dat": 6319,
      "4467.dat": 6320,
      "004695e.dat": 6321,
      "1a.dat": 6322,
      "4466.dat": 6323,
      "410698": 6324,
      "6551.dat": 6325,
      "4106981a.dat": 6326,
      "9522": 6327,
      "18943.dat": 6328,
      "4614415f.dat": 6329,
      "95229.dat": 6330,
      "20855": 6331,
      "1858": 6332,
      "75a.dat": 6333,
      "4620855": 6334,
      "197875a.dat": 6335,
      "4620855c.dat": 6336,
      "3888": 6337,
      "30180.dat": 6338,
      "30161.dat": 6339,
      "3245cpz1.dat": 6340,
      "2532.dat": 6341,
      "3996.dat": 6342,
      "4613906f.dat": 6343,
      "u8202.dat": 6344,
      "4517.dat": 6345,
      "735.dat": 6346,
      "2984.dat": 6347,
      "98136.dat": 6348,
      "2983.dat": 6349,
      "3245cpzd.dat": 6350,
      "93589.dat": 6351,
      "u9318.dat": 6352,
      "u8203.dat": 6353,
      "6257": 6354,
      "4079": 6355,
      "99253.dat": 6356,
      "62576.dat": 6357,
      "407924.dat": 6358,
      "30095.dat": 6359,
      "388.dat": 6360,
      "98388.dat": 6361,
      "4610.dat": 6362,
      "u60": 6363,
      "1775": 6364,
      "u609.dat": 6365,
      "92738.dat": 6366,
      "30147.dat": 6367,
      "1561": 6368,
      "10039.dat": 6369,
      "62698": 6370,
      "48457.dat": 6371,
      "004490b.dat": 6372,
      "359.dat": 6373,
      "82359.dat": 6374,
      "30115.dat": 6375,
      "816.dat": 6376,
      "1979": 6377,
      "6062886d.dat": 6378,
      "815.dat": 6379,
      "3876.dat": 6380,
      "25a.dat": 6381,
      "168225a.dat": 6382,
      "2913.dat": 6383,
      "47674.dat": 6384,
      "9552.dat": 6385,
      "9553.dat": 6386,
      "u9370.dat": 6387,
      "30090.dat": 6388,
      "30091.dat": 6389,
      "2200": 6390,
      "30182.dat": 6391,
      "3761.dat": 6392,
      "3245cpz7.dat": 6393,
      "30087.dat": 6394,
      "3888ac01.dat": 6395,
      "u9212.dat": 6396,
      "u9107.dat": 6397,
      "7284.dat": 6398,
      "4362": 6399,
      "u68": 6400,
      "11002.dat": 6401,
      "4362ac01.dat": 6402,
      "u686.dat": 6403,
      "1863": 6404,
      "3429.dat": 6405,
      "814.dat": 6406,
      "ac02.dat": 6407,
      "92279.dat": 6408,
      "u9108.dat": 6409,
      "u9314.dat": 6410,
      "u9371.dat": 6411,
      "u9153.dat": 6412,
      "4116878a.dat": 6413,
      "3888ac02.dat": 6414,
      "30127.dat": 6415,
      "156.dat": 6416,
      "72156.dat": 6417,
      "1818": 6418,
      "4438.dat": 6419,
      "4720.dat": 6420,
      "9308": 6421,
      "2896": 6422,
      "9258": 6423,
      "3995.dat": 6424,
      "4874.dat": 6425,
      "4521703e.dat": 6426,
      "93089.dat": 6427,
      "28964.dat": 6428,
      "92584.dat": 6429,
      "u66": 6430,
      "30114": 6431,
      "1956": 6432,
      "66c02.dat": 6433,
      "25866c02.dat": 6434,
      "9328.dat": 6435,
      "u8205.dat": 6436,
      "u669.dat": 6437,
      "30114.dat": 6438,
      "0043": 6439,
      "18b.dat": 6440,
      "4452.dat": 6441,
      "30086.dat": 6442,
      "u8204.dat": 6443,
      "004318b.dat": 6444,
      "998.dat": 6445,
      "u589.dat": 6446,
      "1981": 6447,
      "1893": 6448,
      "476.dat": 6449,
      "4463.dat": 6450,
      "59718a.dat": 6451,
      "52035.dat": 6452,
      "41812.dat": 6453,
      "6133.dat": 6454,
      "1950": 6455,
      "75b.dat": 6456,
      "30376.dat": 6457,
      "4613906g.dat": 6458,
      "195075b.dat": 6459,
      "3018": 6460,
      "3136.dat": 6461,
      "2549.dat": 6462,
      "6484": 6463,
      "2030": 6464,
      "85983.dat": 6465,
      "3245cpz5.dat": 6466,
      "15341.dat": 6467,
      "4491b.dat": 6468,
      "64847.dat": 6469,
      "812.dat": 6470,
      "30235.dat": 6471,
      "2911": 6472,
      "64728.dat": 6473,
      "30378.dat": 6474,
      "190265a.dat": 6475,
      "29111.dat": 6476,
      "30113.dat": 6477,
      "24946.dat": 6478,
      "30239.dat": 6479,
      "4492.dat": 6480,
      "794.dat": 6481,
      "1771": 6482,
      "59bc01.dat": 6483,
      "6148.dat": 6484,
      "2807.dat": 6485,
      "18972.dat": 6486,
      "3729.dat": 6487,
      "50859bc01.dat": 6488,
      "92290.dat": 6489,
      "4337.dat": 6490,
      "4505.dat": 6491,
      "4335.dat": 6492,
      "64452.dat": 6493,
      "93252.dat": 6494,
      "30187.dat": 6495,
      "749.dat": 6496,
      "190265b.dat": 6497,
      "45707.dat": 6498,
      "30189.dat": 6499,
      "270.dat": 6500,
      "73200": 6501,
      "1772": 6502,
      "2578.dat": 6503,
      "4612.dat": 6504,
      "4796.dat": 6505,
      "197905c.dat": 6506,
      "73200.dat": 6507,
      "818.dat": 6508,
      "6028.dat": 6509,
      "6026.dat": 6510,
      "4613.dat": 6511,
      "764.dat": 6512,
      "u9150.dat": 6513,
      "u9312.dat": 6514,
      "4613905c.dat": 6515,
      "30657.dat": 6516,
      "2490.dat": 6517,
      "4480.dat": 6518,
      "4607.dat": 6519,
      "2045.dat": 6520,
      "2588.dat": 6521,
      "2547ac01.dat": 6522,
      "87694.dat": 6523,
      "u9154.dat": 6524,
      "3047": 6525,
      "16ac01.dat": 6526,
      "6027.dat": 6527,
      "30068.dat": 6528,
      "4439.dat": 6529,
      "4616ac01.dat": 6530,
      "u9214.dat": 6531,
      "74323.dat": 6532,
      "813.dat": 6533,
      "4823.dat": 6534,
      "30084.dat": 6535,
      "30478.dat": 6536
    },
    "merges": [
      "< |",
      "| >",
      "O S",
      "OS |>",
      ". d",
      "H P",
      "I |>",
      "O R",
      "P OS|>",
      "S HP",
      "a t",
      "<| OR",
      "<| POS|>",
      "<| SHP",
      ".d at",
      "<|OR I|>",
      "<|SHP |>",
      "7 0",
      ". 70",
      ".70 7",
      "0 0",
      ". 5",
      "3 0",
      "1 6",
      "2 0",
      ".5 00",
      "1 0",
      "4 0",
      ". 6",
      ". 0",
      "1 5",
      "8 0",
      ". 9",
      "7 1",
      "1 9",
      "2 4",
      "6 0",
      ". 4",
      ". 3",
      "1 4",
      ". 2",
      "3 2",
      "5 0",
      "7 2",
      "1 2",
      "3 .dat",
      ". 8",
      "3 6",
      "1 8",
      "9 0",
      ". 7",
      "3 7",
      "2 7",
      "4 .dat",
      "2 8",
      ". 1",
      "3 00",
      "1 .dat",
      ". 00",
      "3 8",
      "9 .dat",
      "5 .dat",
      "9 2",
      "5 6",
      "4 8",
      "7 .dat",
      "30 2",
      "6 6",
      "5 8",
      "1 7",
      "1 00",
      "1 20",
      "2 .dat",
      "3 4",
      "2 6",
      "3 20",
      "5 4",
      "5 9",
      "3 9",
      "15 0",
      "4 4",
      "80 .dat",
      "6 5",
      "1 10",
      "1 40",
      "2 9",
      "2 00",
      "3 5",
      "16 0",
      "4 7",
      "2 5",
      ".9 9",
      "6 .dat",
      "8 8",
      "302 3.dat",
      "5 3",
      "6 4",
      "8 3",
      "3 3",
      "1 30",
      "1 1",
      "30 6",
      "27 80.dat",
      "9 8",
      "7 7.dat",
      "9 6",
      "3 1",
      "6 2",
      "7 5",
      "5 2",
      "19 0",
      "4 6",
      "32 .dat",
      "1 80",
      "18 .dat",
      "7 8",
      "10 .dat",
      "24 .dat",
      "2 2",
      "9 9",
      "8 4",
      "5 7",
      "u 92",
      "u92 18.dat",
      "6 7",
      "7 3",
      "4 2",
      "9 3",
      "4 5",
      "1 70",
      "6 8",
      "16 6.dat",
      "7 4",
      "9 4",
      "7 6",
      "1 3",
      "30 24.dat",
      "2 40",
      "7 9",
      "8 7",
      "3 70",
      "4 9",
      "6 9",
      "8 2",
      "6 14",
      "4 3",
      "8 9",
      "8 6",
      "300 4.dat",
      "6 1",
      "8 .dat",
      "8 5",
      "70 .dat",
      "2 20",
      "9 7",
      "9 5",
      ".5 0",
      "5 5",
      "614 1.dat",
      "300 5.dat",
      "9 32.dat",
      "2 80",
      "8 1",
      ". 18",
      "20 .dat",
      "2 10",
      "58 .dat",
      "2 60",
      ".6 53",
      "36 2",
      ". 14",
      ". 16",
      "2 3",
      ". 10",
      "7 7",
      ".2 71",
      ".00 0",
      "3 10",
      "1 12",
      "2 1",
      "6 3",
      "37 10.dat",
      "2 30",
      "2 50",
      "306 9.dat",
      "4 1",
      "2 90",
      ".6 0",
      ". 15",
      "65 58.dat",
      ". 12",
      "9 1",
      "5 1",
      "37 9",
      ".70 6",
      ". 19",
      "36 .dat",
      "4 30",
      ".9 24",
      ".3 83",
      "2 70",
      "10 4",
      ". 40",
      "30 3",
      ".00 1",
      ". 24",
      ". 20",
      "14 4",
      "12 8",
      "28 8",
      "1 36",
      "16 8",
      "66 .dat",
      "60 .dat",
      "15 2",
      "3 60",
      ".99 9",
      "12 .dat",
      "30 70.dat",
      ". 71",
      "30 20.dat",
      "3 1.dat",
      "2 72",
      ". 80",
      "3 30",
      "362 3.dat",
      ".9 0",
      "36 66.dat",
      "3 40",
      "200 .dat",
      "54 200.dat",
      ".70 4",
      "30 10.dat",
      "302 1.dat",
      ". 72",
      ". 30",
      "24 12.dat",
      "2 56",
      "4 16",
      "4 00",
      "17 6",
      "40 .dat",
      ".70 0",
      "3 50",
      "32 5",
      "3 90",
      "4 27",
      "8 70",
      "9 3.dat",
      "19 .dat",
      "302 2.dat",
      ".70 5",
      "5 4.dat",
      "19 2",
      "430 93.dat",
      ".5 67",
      "24 31.dat",
      "3 80",
      ".6 98",
      "18 4",
      ".2 59",
      "3 71",
      "56 .dat",
      "7 3.dat",
      ".9 66",
      "4 80",
      "4 40",
      "306 2.dat",
      ".8 66",
      "320 6",
      "1 14",
      ".70 1",
      "1 38",
      "28 .dat",
      "4 20",
      ".0 10",
      "20 8",
      "306 8.dat",
      "6 5.dat",
      "2 16",
      "427 4.dat",
      "379 4.dat",
      "362 2.dat",
      "24 20.dat",
      ".4 33",
      "40 70.dat",
      "30 4",
      ".6 83",
      ".00 4",
      "300 9.dat",
      ".18 3",
      "40 8",
      "4 50",
      "16 .dat",
      ".70 3",
      ".0 20",
      ".00 7",
      ".00 6",
      "37 .dat",
      "34 60.dat",
      "5 20",
      "u 9",
      "24 8",
      "2 24",
      "5 60",
      "45 19.dat",
      "4 10",
      "190 .dat",
      "371 3.dat",
      "1 32",
      "4 90",
      ".3 16",
      "u9 190.dat",
      "6 38",
      ".3 54",
      "3206 2.dat",
      "1 19",
      "4 60",
      "320 54.dat",
      "14 .dat",
      ".6 12",
      "30 40.dat",
      "17 9",
      ".70 2",
      ".0 92",
      "5 70",
      "24 4",
      "379 5.dat",
      "37 4",
      ".99 8",
      "3 9.dat",
      "870 8",
      "5 00",
      ".0 62",
      ".1 38",
      ".6 93",
      ".5 88",
      "5 50",
      "4 70",
      ".4 30",
      "320 28.dat",
      "32 52",
      "37 8",
      ".00 3",
      "66 36.dat",
      "10 2",
      "2 32",
      ".5 61",
      ".00 2",
      ".1 00",
      ".1 16",
      "32 12",
      "0 .dat",
      ".99 7",
      "7 9.dat",
      ".6 60",
      "4 28",
      "32 3",
      "1 18",
      ".99 5",
      "3212 3.dat",
      "19 1",
      "3 12",
      ".0 12",
      "29 6",
      "75 4.dat",
      ".6 94",
      ".9 90",
      "26 4",
      ".99 6",
      "30 .dat",
      ".0 29",
      "2 35",
      "1 34",
      ".0 31",
      "36 8",
      "15 6",
      "32 2",
      "6 00",
      ".5 42",
      ".0 46",
      "1 24",
      "15 57",
      "1557 3.dat",
      "300 3.dat",
      ".60 9",
      "5 30",
      ".0 58",
      "59 8",
      ".99 1",
      "12 6",
      "10 8",
      ".0 44",
      ".1 31",
      "35 2",
      "1 16",
      "1 39",
      "5 40",
      ".6 80",
      "5 80",
      "14 2",
      ".00 9",
      "300 8.dat",
      ".0 18",
      ".6 32",
      "638 6",
      "1 72",
      ".00 8",
      "26 .dat",
      "65 36.dat",
      ".6 00",
      ".6 88",
      "303 4.dat",
      ".0 15",
      ".0 74",
      "36 60.dat",
      "416 2.dat",
      ".4 54",
      ".0 69",
      "5 90",
      "10 6",
      "15 4",
      ".0 25",
      ".0 40",
      "32 8",
      "300 1.dat",
      "10 9",
      ".8 00",
      "3 36",
      "15 9",
      "40 32.dat",
      "138 .dat",
      "24 2",
      ".0 14",
      "34 4",
      ".7 93",
      "28 77.dat",
      ".3 93",
      "14 8",
      ".6 71",
      "12 5",
      "4 59",
      ".9 87",
      "60 47",
      "15 8",
      ".0 13",
      ".5 46",
      ".6 97",
      ".0 52",
      "98 138.dat",
      "303 9.dat",
      "44 77.dat",
      "50 .dat",
      "32 00",
      ".0 37",
      ".16 4",
      "11 1",
      "7 56.dat",
      "12 2",
      "36 65.dat",
      "36 73.dat",
      "370 0.dat",
      ".7 60",
      "16 4",
      "68 .dat",
      ".2 00",
      "24 6",
      "1 35",
      ".0 33",
      "30 1",
      ".99 4",
      "37 6",
      "59 44",
      "5944 3.dat",
      "140 .dat",
      ".4 95",
      ".9 81",
      "5 10",
      "60 48",
      "19 8",
      ".16 5",
      ".00 5",
      "10 5",
      "38 4",
      "16 2",
      "38 .dat",
      "38 9",
      "12 9",
      ".9 80",
      "E OS|>",
      "<| EOS|>",
      "32 9",
      ".3 26",
      ".10 1",
      ".2 24",
      "30 8",
      ".6 73",
      ".0 82",
      "17 4",
      "32 140.dat",
      "1 15",
      ".1 10",
      ".4 97",
      "2 19",
      "4 26",
      ".9 54",
      "10 1",
      "2 26",
      ".50 5",
      "19 9",
      "25 5",
      ".0 86",
      "24 5",
      "235 7.dat",
      ".12 9",
      ".3 20",
      ".1 40",
      "5 9.dat",
      ".6 27",
      ".6 95",
      "92 .dat",
      "370 5.dat",
      "2 12",
      ".0 80",
      ".6 92",
      "16 9",
      "8 598",
      "8598 4.dat",
      ".3 50",
      "14 3",
      "870 79.dat",
      ".6 40",
      ".19 5",
      ".50 3",
      ".4 00",
      ".9 88",
      "325 24.dat",
      ".5 20",
      ". 160",
      "10 3",
      "323 16.dat",
      ".3 40",
      "18 8",
      "18 65",
      ".6 96",
      "6386 4.dat",
      ".0 11",
      "29 7",
      ".7 84",
      "99 20",
      ".6 99",
      ".6 86",
      "7 20",
      "14 9",
      "325 26.dat",
      ".0 60",
      "2 59",
      "17 8",
      ".4 16",
      "6 40",
      ".6 41",
      "1 3.dat",
      ".2 40",
      ".5 80",
      "3252 3.dat",
      ".3 80",
      "18 2",
      ".30 1",
      ".50 7",
      "78 .dat",
      ".4 49",
      ".4 40",
      ".6 89",
      ".9 40",
      "4 24",
      "12 1",
      ".4 93",
      "16 6",
      ".2 13",
      ".99 3",
      "8708 7.dat",
      ".5 57",
      "3 92",
      "14 1",
      "39 4",
      ".0 68",
      "4 200",
      "4200 3.dat",
      ".0 87",
      "14 6",
      ".9 83",
      "2 39",
      ".14 1",
      ".4 47",
      ".0 50",
      ".6 78",
      ".0 65",
      "20 6",
      ".14 7",
      "15 5",
      "32 1",
      ".9 60",
      "6 80",
      ".5 72",
      "18 9",
      "12 3",
      "3 54",
      ".6 76",
      "15 1",
      "20 4",
      ".3 85",
      ".6 67",
      "374 9.dat",
      "14 7",
      ".5 31",
      ".0 70",
      ".5 75",
      ".0 97",
      ".1 11",
      "2 92",
      ".7 20",
      "30 37.dat",
      ".3 60",
      ".4 99",
      ".1 20",
      ".0 26",
      "17 5",
      "58 9.dat",
      ".4 11",
      ".10 5",
      ".5 96",
      "14 5",
      "2 18",
      "112 14.dat",
      ".0 56",
      ".0 35",
      ".9 92",
      ".5 60",
      ".1 71",
      "28 5",
      ".2 80",
      ".4 23",
      "19 6",
      "60 9",
      ".4 67",
      ".50 9",
      "18 6",
      ".4 50",
      "12 7",
      ".0 30",
      ".0 21",
      "1 33",
      ".0 49",
      ".6 90",
      "4 12",
      ".0 16",
      ".5 66",
      "1 31",
      ".5 10",
      ".4 82",
      ".6 74",
      "4 48",
      ".4 78",
      "19 4",
      ".15 6",
      "2 58",
      ".0 36",
      ".4 80",
      ".2 50",
      "5 75",
      ".6 22",
      ".4 62",
      ".5 21",
      ".0 42",
      ".1 80",
      ".3 33",
      "16 5",
      ".6 87",
      ".0 41",
      "11 3",
      ".5 34",
      "15 3",
      ".0 24",
      "320 73.dat",
      "10 7",
      "4 72",
      ".2 53",
      ".5 93",
      ".5 14",
      "24 1",
      ".3 00",
      "4 32",
      ".6 75",
      ".5 56",
      ".0 28",
      ".6 62",
      ".9 89",
      ".5 50",
      "1 17",
      ".4 98",
      ".0 90",
      ".6 43",
      "15 7",
      ".8 60",
      ".0 53",
      ".0 17",
      "2 33",
      ".0 78",
      ".9 79",
      ".8 80",
      "2 38",
      "48 65.dat",
      "4 17",
      ".2 12",
      "2 34",
      "1 37",
      "48 4",
      ".6 81",
      ".3 70",
      "17 3",
      "50 9",
      "90 .dat",
      ".10 6",
      ".3 42",
      ".5 17",
      ".8 40",
      ".5 40",
      "18 4.dat",
      ". 150",
      ".4 91",
      "16 1",
      ".0 88",
      ".4 35",
      ".0 34",
      ".6 24",
      ".4 73",
      ".0 43",
      "2 288",
      ".4 85",
      ".1 39",
      "114 77.dat",
      ".0 38",
      "18 5",
      "6 16",
      "58 6",
      "28 2",
      "2288 5.dat",
      ".6 47",
      ".7 83",
      "2 14",
      ".16 2",
      "4 56",
      ".4 96",
      ".6 20",
      ".5 62",
      "6 54",
      ".2 33",
      "48 8",
      "300 2.dat",
      ".6 42",
      ".1 30",
      "17 7",
      ".8 94",
      ".0 23",
      ".6 64",
      ".15 3",
      "6 20",
      ".0 71",
      ".40 6",
      "15 .dat",
      ".5 25",
      ".4 26",
      ".0 77",
      ".0 47",
      ".9 20",
      ".5 79",
      "16 3",
      ".9 10",
      "1 71",
      ".5 83",
      ".0 61",
      ".12 8",
      ".5 39",
      ".4 20",
      ".6 69",
      "20 2",
      ".4 79",
      "609 1.dat",
      ".2 29",
      ".24 2",
      ".6 82",
      ".9 86",
      ".6 50",
      "2 28",
      "20 5",
      ".2 60",
      ".0 22",
      "4 64",
      ".6 85",
      "16 7",
      "8 75",
      ".4 89",
      ".0 73",
      "27 8.dat",
      "4 18",
      "22 2",
      "18 1",
      ".0 19",
      ".7 50",
      ".9 31",
      ".5 90",
      "32 278.dat",
      ".6 91",
      "2 36",
      ".8 31",
      ".0 32",
      "36 4",
      "150 68.dat",
      ".7 66",
      ".9 00",
      ".19 1",
      ".8 27",
      "6 10",
      ".0 99",
      ".3 21",
      ".1 73",
      ".6 33",
      ".8 50",
      "22 3",
      ".71 4",
      ".0 89",
      ".0 72",
      ".5 89",
      ".9 72",
      "44 4",
      ".4 45",
      ".2 84",
      ".2 88",
      ".14 5",
      ".2 14",
      ".2 30",
      ".2 76",
      "25 2",
      ".9 71",
      "00 .dat",
      ".3 32",
      ".0 79",
      ".0 96",
      "27 9",
      "20 9",
      ".15 5",
      "320 13.dat",
      ".0 39",
      ".2 91",
      ".0 83",
      ".5 74",
      "38 32.dat",
      "3 4.dat",
      ".3 63",
      ".9 52",
      "614 3.dat",
      ".2 99",
      ".2 36",
      ".5 26",
      ".9 76",
      "40 490",
      "40490 .dat",
      "48 .dat",
      "32 184.dat",
      ".12 3",
      "3252 5.dat",
      ".0 45",
      ".4 59",
      ".0 55",
      ".9 50",
      ".0 75",
      "20 1",
      ".9 85",
      ".14 2",
      ".1 14",
      ".60 3",
      ".0 63",
      ".6 56",
      ".71 1",
      ".50 4",
      "18 3",
      ".6 29",
      ".5 69",
      ".3 92",
      "66 32.dat",
      "18 7",
      ".4 60",
      ".0 98",
      ".6 46",
      ".14 8",
      ".0 94",
      ".5 30",
      ".5 86",
      ".90 6",
      ".4 34",
      ".2 16",
      ".1 79",
      ".3 66",
      ".8 87",
      ".1 18",
      ".6 36",
      "6 60",
      ".2 10",
      ".6 18",
      ".50 2",
      ".12 6",
      "3 3.dat",
      "255 5.dat",
      "19 5",
      ".0 81",
      ".12 1",
      ".9 70",
      ".9 82",
      ".2 39",
      ".16 9",
      "370 1.dat",
      ".3 98",
      ".5 16",
      ".6 30",
      ".6 63",
      ".1 35",
      ".0 84",
      ".5 47",
      "24 9",
      ".0 66",
      "3 48",
      ".0 51",
      ".0 57",
      ".7 37",
      ".10 8",
      ".5 54",
      ".1 17",
      "27 6",
      "26 8",
      "27 4",
      ".6 25",
      "100 .dat",
      ".7 32",
      ".8 61",
      ".0 48",
      ".3 12",
      ".20 6",
      ".5 53",
      ".1 74",
      ".3 91",
      ".10 4",
      "19 3",
      ".4 58",
      ".3 53",
      "8 586",
      ".3 59",
      "242 9.dat",
      "6 30",
      "428 6.dat",
      ".0 27",
      ".71 3",
      ".1 32",
      ".0 76",
      "4 38",
      ".14 3",
      "575 18.dat",
      ".0 64",
      ".4 24",
      ".6 10",
      "70 0",
      "19 7",
      "24 3",
      "98 28",
      "370 6.dat",
      "408 5.dat",
      ".6 23",
      ".10 7",
      ".4 90",
      ".1 33",
      "3 18",
      ".3 69",
      ".18 4",
      ".7 16",
      ".6 72",
      ".2 20",
      "48 3",
      ".4 52",
      ".2 34",
      ".3 58",
      "394 1.dat",
      ".0 85",
      ".4 70",
      ".3 71",
      ".40 7",
      ".8 20",
      ".6 38",
      ".2 72",
      ".1 12",
      ".15 2",
      ".3 90",
      "30 32.dat",
      ".1 75",
      ".6 11",
      "24 30.dat",
      ".12 2",
      ".8 58",
      ".9 49",
      "26 1",
      ".9 61",
      ".2 19",
      ".5 38",
      "20 7",
      ".6 49",
      ".6 57",
      ".9 29",
      "72 8.dat",
      "44 728.dat",
      "26 5",
      "5 36",
      ".5 70",
      ".6 77",
      ".0 54",
      ".9 30",
      "60 8",
      ".3 81",
      ".4 66",
      ".5 22",
      "2 13",
      "29 9",
      ".1 34",
      ".5 78",
      ".4 39",
      "26 2",
      "2 15",
      "15 100.dat",
      ".3 72",
      ".5 59",
      ".7 80",
      ".5 23",
      ".6 58",
      "2 29",
      "408 1.dat",
      ".40 9",
      ".4 92",
      "8586 1.dat",
      "30 36",
      "416 77.dat",
      "59 9",
      ".24 8",
      "24 7",
      ".7 35",
      "27 5",
      ".4 87",
      "2 71",
      ".9 73",
      "301 36.dat",
      ".60 2",
      ".3 64",
      ".4 94",
      ".0 59",
      "30 37",
      ".18 1",
      ".4 84",
      ".20 8",
      ".18 2",
      ".5 82",
      ".6 79",
      ".4 15",
      ".3 73",
      ".14 9",
      ".4 38",
      "72 .dat",
      ".30 4",
      "59 3.dat",
      ".6 84",
      "426 5.dat",
      ".6 61",
      ".6 15",
      ".5 52",
      ".60 6",
      ".4 57",
      ".7 72",
      ".2 93",
      "509 50.dat",
      ".8 99",
      ".2 35",
      ".15 8",
      "4 589.dat",
      ".6 28",
      ".50 1",
      ".4 42",
      "2 11",
      ".40 4",
      ".5 49",
      "303 1.dat",
      ".9 62",
      ".5 81",
      "654 1.dat",
      ".5 76",
      "38 2",
      ".9 48",
      "9828 3.dat",
      ".24 4",
      ".5 45",
      ".6 66",
      ".16 8",
      ".4 68",
      "48 6",
      ".6 70",
      ".3 17",
      ".4 88",
      ".9 35",
      ".6 26",
      ".14 6",
      ".7 10",
      ".3 55",
      ".9 11",
      ".3 75",
      "20 3",
      ".1 24",
      ".1 15",
      "98 .dat",
      "5 28",
      ".7 40",
      ".18 8",
      ".20 7",
      ".3 27",
      ".8 64",
      ".4 12",
      ".15 9",
      ".4 44",
      "3 39",
      ".1 36",
      ".7 49",
      ".4 46",
      ".3 15",
      ".7 92",
      ".5 18",
      "4 96",
      "29 3",
      ".8 19",
      "46 9",
      "8 00",
      "27 8",
      ".3 19",
      ".9 28",
      ".18 6",
      "3 19",
      ".2 58",
      ".9 74",
      ".19 4",
      "1865 4.dat",
      "7 60",
      ".1 77",
      "3 56",
      ".3 34",
      ".3 87",
      ".9 59",
      ".6 52",
      ".0 95",
      "34 2",
      ".5 65",
      "39 5",
      ".2 70",
      ".14 4",
      "29 1",
      "50 4",
      ".3 23",
      ".19 2",
      ".10 9",
      ".3 31",
      ".8 70",
      ".6 21",
      ".5 27",
      ".3 62",
      ".1 13",
      ".5 77",
      ".1 72",
      ".4 64",
      ".5 32",
      ".6 59",
      ".4 27",
      ".10 3",
      ".3 28",
      ".8 65",
      ".40 1",
      "6 56",
      "2 17",
      ". 190",
      ".4 69",
      "25 1",
      "2 54",
      "30 9",
      ".2 85",
      ".5 13",
      "28 1",
      "9920 7.dat",
      ".2 82",
      ".15 4",
      ".3 82",
      ".5 64",
      ".3 30",
      ".8 24",
      ".5 92",
      ".4 86",
      ".9 17",
      ".3 95",
      ".80 2",
      ".24 5",
      "2 27",
      "412 39.dat",
      ".1 37",
      ".80 9",
      ".2 38",
      ".4 55",
      ".7 70",
      "5 12",
      "47 8",
      ".50 6",
      "6047 8.dat",
      "4 62",
      ".7 30",
      ".0 91",
      ".6 44",
      ".8 30",
      "3 16",
      "246 2.dat",
      ".9 84",
      ".60 5",
      ".5 36",
      ".5 87",
      ".2 90",
      ".8 39",
      "8 80",
      ".6 45",
      ".5 37",
      ".30 9",
      ".4 32",
      ".5 44",
      ".9 23",
      "36 5",
      "3 11",
      ".5 28",
      ".20 3",
      ".2 25",
      "62 31.dat",
      ".12 7",
      ".9 34",
      ".6 51",
      ".4 31",
      "29 4",
      ".9 27",
      ".5 48",
      ".3 39",
      "354 80.dat",
      ".7 51",
      ".3 10",
      ".6 68",
      ".7 90",
      ".6 35",
      ".2 15",
      ".18 9",
      ".9 15",
      "2 25",
      ".5 98",
      ".1 70",
      ".8 10",
      ".15 1",
      ".24 6",
      "28 9",
      ".2 81",
      ".2 54",
      "6 50",
      ".8 90",
      ".90 1",
      ".3 18",
      ".2 95",
      ".5 15",
      "28 4",
      ".72 7",
      ".1 76",
      ".4 77",
      ".6 55",
      "325 56.dat",
      ".20 4",
      ".0 67",
      "25 3",
      ".5 55",
      "875 80.dat",
      ".6 37",
      ".24 7",
      ".2 62",
      ".4 56",
      ".2 52",
      ".2 98",
      ".19 9",
      ".2 67",
      ".18 7",
      ".0 93",
      ".2 74",
      ".8 15",
      ".16 6",
      ".2 31",
      ".8 43",
      "2 31",
      "8708 3.dat",
      "320 34.dat",
      ".3 96",
      ".3 78",
      "26 9.dat",
      ".2 87",
      ".5 29",
      ".4 21",
      ".2 18",
      "9920 6.dat",
      "25 7",
      ".5 58",
      "6048 3.dat",
      "3206 4.dat",
      ".4 81",
      ".16 3",
      ".9 32",
      ".4 53",
      ".6 19",
      ".3 86",
      ".1 19",
      "44 59.dat",
      ".2 55",
      ".5 68",
      ".5 11",
      "244 5.dat",
      ".9 56",
      ".6 65",
      ".8 97",
      ".4 72",
      "60 5",
      ".8 59",
      ".72 2",
      ".20 1",
      "6 58",
      "2 66",
      ".9 77",
      ".12 5",
      ".9 67",
      ".3 89",
      ".3 67",
      ".2 96",
      ".4 74",
      ".16 7",
      ".3 46",
      ".4 28",
      ".7 31",
      "3 58",
      "56 8",
      "4 22",
      ".5 63",
      "7 80",
      ".2 57",
      ".20 9",
      ".24 3",
      ".50 8",
      ".3 44",
      ".9 19",
      ".71 7",
      ".5 85",
      "6 2462.dat",
      ".7 68",
      ".2 21",
      ".3 43",
      ".6 54",
      ".3 52",
      ".8 12",
      ".2 23",
      "389 4.dat",
      ".20 2",
      "22 1",
      ".4 83",
      "39 37.dat",
      ".6 34",
      ".19 8",
      ".2 17",
      ".71 2",
      ".4 22",
      ".3 79",
      ".2 73",
      ".9 45",
      ".2 89",
      "599 00.dat",
      "43 72",
      ".8 75",
      ".5 95",
      ".3 37",
      ".5 97",
      ".8 68",
      ".6 17",
      "3 32",
      ".4 10",
      ".3 35",
      "58 4",
      ".3 76",
      ".40 2",
      ".15 7",
      ".19 7",
      ".5 12",
      ". 303",
      ".3 94",
      ".3 99",
      ".40 8",
      "1865 1.dat",
      "320 39.dat",
      ".3 68",
      "60 60",
      ".4 71",
      ".4 36",
      ".19 6",
      ".72 8",
      ".60 4",
      ".6 14",
      ".4 76",
      ".6 48",
      ".2 65",
      "29 8",
      ".3 22",
      "5 52",
      ".5 94",
      ".5 73",
      ".2 32",
      ".9 58",
      ".9 44",
      ".3 11",
      ".8 92",
      ".9 69",
      ".8 57",
      ".40 5",
      ".1 78",
      "26 54.dat",
      ".4 29",
      ".3 56",
      ".5 84",
      "303 5.dat",
      "28 6",
      ".4 18",
      ".40 3",
      ".2 63",
      "1 1.dat",
      ".16 1",
      ".7 87",
      "28 7",
      "71 2.dat",
      ".8 14",
      ".8 98",
      ".18 5",
      ".30 7",
      ".4 43",
      ".6 39",
      ".9 18",
      ".2 77",
      ".5 35",
      "54 4",
      "25 40.dat",
      ".3 38",
      "459 9.dat",
      ".5 24",
      ".8 73",
      "38 8",
      ".7 67",
      ".72 5",
      ".60 8",
      "3 59",
      ".5 71",
      ".8 62",
      "34 6",
      ".60 1",
      ".80 4",
      ".3 45",
      ".72 6",
      ".2 86",
      ".5 43",
      "9 60",
      ".8 56",
      "3 17",
      "244 9.dat",
      ".7 36",
      ".2 79",
      ".3 97",
      ".2 83",
      ".9 75",
      "92 2",
      "39 6",
      ".2 37",
      ".2 69",
      ".3 29",
      ".2 78",
      ".8 74",
      ".2 27",
      "27 3",
      "44 90.dat",
      ".7 64",
      "3037 4.dat",
      "26 3",
      ".71 9",
      ".30 8",
      "8 20",
      ". 306",
      "2 37",
      ".3 88",
      ".4 25",
      ".24 9",
      ".9 78",
      "30 5",
      ".4 63",
      "6 25",
      ".24 1",
      ".4 17",
      ".2 22",
      ".2 11",
      ".3 61",
      ".2 94",
      ".19 3",
      ".5 51",
      ".9 64",
      ".8 32",
      ".8 79",
      ".2 28",
      ".70 9",
      ".8 48",
      ".80 8",
      ". 302",
      ".7 75",
      ".7 15",
      ".90 8",
      "6 90",
      "38 5",
      ".20 5",
      "4 52",
      "15 712.dat",
      ".9 43",
      ".4 51",
      "89 7.dat",
      ".2 56",
      ".7 58",
      "60 897.dat",
      "3 34",
      "3200 0.dat",
      ".10 2",
      "304 14.dat",
      "3 329",
      ".7 95",
      ".2 51",
      ".9 46",
      ".7 56",
      "7 40",
      ".8 54",
      ".4 19",
      ".2 61",
      "370 2.dat",
      ".4 61",
      "36 7",
      ".8 25",
      "7 30",
      "26 9",
      ".7 79",
      ".7 24",
      ".80 7",
      ".3 24",
      ".8 53",
      ".2 97",
      ".9 37",
      ".2 66",
      "3 24",
      ".8 67",
      "47 40.dat",
      ".3 49",
      "4 34",
      ".9 47",
      "4 14",
      ".7 63",
      "34 5",
      ".9 14",
      ".9 22",
      "66 2",
      ".7 52",
      ".3 48",
      "50 74",
      ".2 64",
      ".2 26",
      "428 2.dat",
      "370 3.dat",
      ".4 41",
      ".7 34",
      "26 60",
      ".8 72",
      ".7 62",
      "483 36.dat",
      ".5 91",
      ".7 48",
      ".9 68",
      "57 6",
      ".4 37",
      ".8 16",
      ".2 92",
      "36 6",
      "3 72",
      ".6 31",
      ".8 95",
      ".4 65",
      ".9 13",
      "6 11",
      "922 80.dat",
      ".8 34",
      ".9 36",
      ".3 25",
      ".8 29",
      ".3 36",
      ".9 21",
      ".9 16",
      ".7 69",
      ".5 33",
      ".3 84",
      ".71 8",
      "6 13",
      ".9 39",
      ".8 37",
      "38 73.dat",
      ".5 19",
      ".4 14",
      ".30 5",
      ".60 7",
      "99 7",
      "112 11.dat",
      "6 70",
      ".70 8",
      "31 3",
      "44 5",
      "6 48",
      ".7 88",
      ".3 65",
      ".8 96",
      ".9 41",
      ".7 42",
      "32 98.dat",
      ".7 43",
      "71 9.dat",
      ".6 13",
      "5 18",
      "32 6",
      ".2 68",
      ".8 89",
      ".4 48",
      ".3 74",
      "997 80.dat",
      ".3 41",
      ".6 16",
      "7 10",
      ".3 13",
      ".9 38",
      ".8 23",
      ".8 85",
      "26 7",
      ".3 14",
      ".8 44",
      "371 1.dat",
      ".9 25",
      ".4 13",
      "29 4.dat",
      "3 38",
      ".3 77",
      ".7 82",
      ".9 55",
      "60 4",
      "39 8",
      "27 7",
      ".5 99",
      ".8 22",
      ".7 59",
      "71 .dat",
      ".5 41",
      ".72 9",
      ".8 88",
      "28 3",
      ".3 57",
      ".8 47",
      "5 78",
      ".2 75",
      ".9 26",
      ".3 51",
      ".7 44",
      ".3 47",
      ".7 81",
      ".7 94",
      ".8 38",
      ".8 83",
      ".8 82",
      ".8 81",
      ".8 52",
      ".7 99",
      "32 7",
      "605 92.dat",
      ".8 49",
      ".7 77",
      "17 9.dat",
      ".80 6",
      "44 294.dat",
      "47 4",
      "25 269.dat",
      "6386 9.dat",
      ".8 36",
      "638 68.dat",
      "3 14",
      "45 92.dat",
      ".7 96",
      ".8 76",
      "616 78.dat",
      ".80 5",
      ".8 55",
      ".7 85",
      ".7 39",
      ".9 57",
      "24 56.dat",
      "34 1",
      ".7 46",
      "90 5.dat",
      "47 905.dat",
      ".8 41",
      "29 5",
      ".8 63",
      "59 4",
      ".8 86",
      "36 59.dat",
      "3329 1.dat",
      "36 80.dat",
      "38 7",
      ".8 17",
      ".8 51",
      "66 4",
      ".9 42",
      ".8 69",
      "5 92",
      ".90 3",
      "30 7",
      ".9 65",
      ".90 9",
      ".9 51",
      ".90 2",
      ".7 61",
      ".7 57",
      ".72 1",
      ".4 75",
      ".7 73",
      ".7 45",
      "3200 2.dat",
      "6 24",
      "7 90",
      "3 2449.dat",
      ".8 42",
      ".8 18",
      ".7 98",
      ".72 3",
      ".9 33",
      "4 15",
      ".7 55",
      ".7 91",
      "322 70.dat",
      "42 16.dat",
      ".90 7",
      "5074 6.dat",
      "40 6",
      ".7 89",
      ".8 91",
      "35 1",
      ".8 78",
      "39 9",
      ".7 86",
      ".7 71",
      ".8 46",
      "5 58",
      "469 5.dat",
      ".9 12",
      "40 9",
      "370 7.dat",
      "38 6",
      "302 .dat",
      ".7 76",
      "33 1",
      ".8 33",
      ".8 28",
      "6 32",
      ".7 65",
      ".90 4",
      "92 593.dat",
      "44 302.dat",
      "3200 9.dat",
      "658 7.dat",
      "6 15",
      "7 4695.dat",
      "44 2",
      "60 19.dat",
      "4 53",
      "24 36.dat",
      ".7 54",
      "8 40",
      "6 589.dat",
      "90 9.dat",
      "3 245",
      "40 2",
      ".7 97",
      ".7 41",
      "329 7.dat",
      ".8 13",
      "7 50",
      "44 9",
      "4 19",
      "47 3",
      "389 5.dat",
      ".9 53",
      "3 35",
      "35 7",
      ".7 38",
      ".7 33",
      "6 72",
      "35 3",
      ".8 84",
      "98 9.dat",
      ".80 1",
      "35 5",
      ".7 53",
      "36 3",
      "36 9",
      "32 29",
      "44 6",
      "459 3.dat",
      "6048 4.dat",
      ".8 45",
      ".7 74",
      "38 1",
      "4 39",
      "4 25",
      "66 28.dat",
      "65 38.dat",
      ".8 21",
      "48 989.dat",
      "34 3",
      "34 9",
      ".8 26",
      "39 3",
      "4 98",
      ".8 35",
      "34 7",
      "7 6.dat",
      ".90 5",
      "40 4",
      "92 5.dat",
      "30 38.dat",
      ".7 78",
      "38 3",
      ".7 47",
      "320 56.dat",
      "156 72.dat",
      "47 9",
      "292 1.dat",
      "395 7.dat",
      "6 140",
      ".8 93",
      ".80 3",
      ".8 77",
      "3 15",
      "5 19",
      "7 36",
      "4 99",
      "5 59",
      "15 46",
      "36 1",
      "7 70",
      "46 8",
      "6140 9.dat",
      "37 3",
      "70 4",
      "33 909.dat",
      "24 54.dat",
      "38 3.dat",
      "8 76",
      "3 37",
      "6 96",
      "40 3",
      "6047 9.dat",
      "4 11",
      "48 5",
      "4 36",
      "45 10.dat",
      "370 9.dat",
      "8 90",
      "48 9",
      "3229 1.dat",
      "4 176",
      "39 7",
      "5 48",
      "5 16",
      "44 1",
      "374 7.dat",
      "6 88",
      "94 6.dat",
      ".8 11",
      "60 14.dat",
      "37 5",
      ".9 63",
      "40 5",
      "40 79.dat",
      "16 5.dat",
      "611 1.dat",
      "5 17",
      "78 1.dat",
      "48 2.dat",
      "30 24",
      "30 36.dat",
      "64 64",
      "48 7",
      "306 3.dat",
      "88 .dat",
      "99 781.dat",
      "53 5.dat",
      "8708 2.dat",
      "30 35",
      "119 4",
      "33 3",
      "7 56",
      "6 12",
      "45 1",
      "5 11",
      "46 24.dat",
      "56 1",
      "47 6",
      "42 1",
      "10 3.dat",
      "32 60",
      "428 7.dat",
      "4 58",
      "39 1",
      "37 7",
      "9 20",
      "40 1",
      "30 9.dat",
      "48 1",
      "4 54",
      "60 593.dat",
      "303 3.dat",
      "112 12.dat",
      "24 32.dat",
      "37 37.dat",
      "6 39",
      "30 30.dat",
      "3024 4.dat",
      "34 103.dat",
      "4 66",
      "6464 4.dat",
      "8 50",
      "5 25",
      "20 482.dat",
      "4 31",
      "114 78.dat",
      "7 16",
      "24 50.dat",
      "4372 2.dat",
      "5 56",
      "5 2.dat",
      "9 32",
      "36 33.dat",
      "613 4.dat",
      "417 70.dat",
      "5 3.dat",
      "662 9.dat",
      "99 4.dat",
      "4 71",
      "87 994.dat",
      "4 37",
      "30 56",
      ".8 71",
      "418 5.dat",
      "4 35",
      "27 30.dat",
      "71 2",
      "58 7",
      "4 94",
      "8 10",
      "304 5.dat",
      "60 59",
      "44 7",
      "8 60",
      "52 1",
      "b .dat",
      "4 13",
      "6 19",
      "300 39.dat",
      "5 7.dat",
      "4 29",
      "46 1",
      "27 .dat",
      "50 6",
      "14 719.dat",
      "39 38.dat",
      "49 5",
      "4372 3.dat",
      "244 4.dat",
      "14 5.dat",
      "44 60.dat",
      "302 9.dat",
      "a .dat",
      "40 7",
      "7 92",
      "320 16.dat",
      "5 35",
      "6 125",
      "6125 2.dat",
      "3260 7.dat",
      "54 6",
      "875 52.dat",
      "6048 1.dat",
      "365 1.dat",
      "5 39",
      "6 18",
      "95 2.dat",
      "53 1",
      "c .dat",
      "55 1",
      "306 5.dat",
      "4 65",
      "75 2",
      "4176 9.dat",
      "50 8",
      "39 58.dat",
      "30 7.dat",
      "32 952.dat",
      "243 16.dat",
      "94 925.dat",
      "4 57",
      "318 5.dat",
      "37 38.dat",
      "1546 2.dat",
      "5 27",
      "50 1",
      "3206 3.dat",
      "282 5.dat",
      "444 5.dat",
      "5 24",
      "7 76",
      "248 66.dat",
      "5 15",
      "300 7.dat",
      "932 73.dat",
      "6060 1.dat",
      "50 2",
      "438 57.dat",
      "47 5",
      "56 4",
      "114 76.dat",
      "241 7.dat",
      "48 2",
      "72 8",
      "604 70.dat",
      "56 145.dat",
      "24 65.dat",
      "1 120",
      "5 38",
      "5 71",
      "32 19",
      "58 5.dat",
      "41 3.dat",
      "6047 4.dat",
      "4 92",
      "64 179.dat",
      "96 9",
      "46 7",
      "7 68",
      "49 1",
      "100 0",
      "62 32.dat",
      "60 3",
      "370 8.dat",
      "52 3",
      "427 3.dat",
      "301 37.dat",
      "10 20",
      "486 4.dat",
      "2660 3.dat",
      "50 7",
      "14 70",
      "9 40",
      "6 478",
      "49 7",
      "5 37",
      "48 72",
      "245 3.dat",
      "36 26.dat",
      "24 309.dat",
      "150 .dat",
      "416 78.dat",
      "56 6",
      "639 65.dat",
      "56 5",
      "364 1.dat",
      "78 4",
      "30 1.dat",
      "285 2.dat",
      "58 1",
      "285 1.dat",
      "5 14",
      "28 7.dat",
      "26 287.dat",
      "4 33",
      "60 15.dat",
      "3245 c.dat",
      "4872 9.dat",
      "60 6",
      "154 58.dat",
      "58 8",
      "50 5",
      "92 946.dat",
      "8 32",
      "6 36",
      "6478 2.dat",
      "969 10.dat",
      "65 2",
      "4 150.dat",
      "56 7",
      "42 3",
      "49 307.dat",
      "5 72",
      "300 4",
      "92 90",
      "320 18.dat",
      "420 2",
      "50 95",
      "368 4.dat",
      "10 60",
      "54 9",
      "5 598",
      "8 36",
      "44 301.dat",
      "7 44",
      "76 2.dat",
      "47 7",
      "80 8",
      "417 5.dat",
      "88 9",
      "54 2",
      "37 762.dat",
      "9 00",
      "46 3",
      "44 3",
      "427 6.dat",
      "3035 7.dat",
      "3036 3.dat",
      "6 179.dat",
      "54 5",
      "5 32",
      "364 7.dat",
      "6 17",
      "6060 2.dat",
      "6 34",
      "320 .dat",
      "44 56",
      "426 10.dat",
      "58 2",
      "5 26",
      "2 296",
      "59 7",
      "5 13",
      "9 90",
      "54 1",
      "66 8.dat",
      "49 668.dat",
      "323 48.dat",
      "322 71.dat",
      "7 96",
      "304 6.dat",
      "14 40",
      "5095 1.dat",
      "2296 1.dat",
      "55 5",
      "10 7.dat",
      "62 2",
      "57 4",
      "186 77.dat",
      "65 53.dat",
      "3056 5.dat",
      "30 28.dat",
      "600 5.dat",
      "50 3",
      "87 40",
      "57 7",
      "14 41",
      "3036 5.dat",
      "4 93",
      "5 54",
      "110 90.dat",
      "59 6",
      "52 2",
      "30 383.dat",
      "61 12.dat",
      "59 1",
      "5 34",
      "80 2",
      "8 30",
      "7 59",
      "58 5",
      "5 53",
      "30 50",
      "6048 5.dat",
      "51 719.dat",
      "625 20.dat",
      "45 5",
      "594 26.dat",
      "8 72",
      "65 1",
      "75 535.dat",
      "99 00",
      "52 107.dat",
      "18 94",
      "60 2",
      "462 3.dat",
      "54 383.dat",
      "250 .dat",
      "3037 7.dat",
      "147 16.dat",
      "68 6",
      "374 3.dat",
      "15 20",
      "28 50.dat",
      "80 4",
      "6 44",
      "18 3.dat",
      "60 1",
      "93 60",
      "38 30.dat",
      "38 4.dat",
      "7 66",
      "32 250.dat",
      "10 24",
      "6 9.dat",
      "348 2.dat",
      "36 48.dat",
      "9 80",
      "427 5.dat",
      "54 384.dat",
      "47 33.dat",
      "6047 7.dat",
      "550 13.dat",
      "24 58.dat",
      "3036 7.dat",
      "321 24.dat",
      "67 6",
      "8 16",
      "54 3",
      "7 48",
      "75 5.dat",
      "70 8",
      "615 7.dat",
      "34 3.dat",
      "233 9.dat",
      "38 31.dat",
      "320 15.dat",
      "61 80.dat",
      "320 14.dat",
      "46 00.dat",
      "317 6.dat",
      "99 77",
      "56 2",
      "15 53",
      "1553 3.dat",
      "608 1.dat",
      "2660 4.dat",
      "58 9",
      "64 1",
      "57 9",
      "150 70.dat",
      "9290 7.dat",
      "65 7",
      "35 2.dat",
      "1441 7.dat",
      "1194 6.dat",
      "27 36.dat",
      "7 32",
      "1194 7.dat",
      "2 344",
      "24 19.dat",
      "6059 6.dat",
      "2344 3.dat",
      "9977 3.dat",
      "8 62",
      "10 80",
      "9 52",
      "30 413.dat",
      "1 7.dat",
      "59 5",
      "6 84",
      "6 28",
      "6 78",
      "480 92.dat",
      "59 3",
      "71 4",
      "290 5.dat",
      "37 352.dat",
      "114 58.dat",
      "281 7.dat",
      "247 6.dat",
      "7 74",
      "9900 8.dat",
      "38 54.dat",
      "5 29",
      "71 8",
      "120 .dat",
      "3219 2.dat",
      "64 6",
      "72 1",
      "517 39.dat",
      "448 8.dat",
      "20 9.dat",
      "32 55",
      "30 27.dat",
      "40 19.dat",
      "37 9.dat",
      "10 40",
      "47 39",
      "14 76",
      "9 30",
      "9 19",
      "6 26",
      "9 36",
      "57 3",
      "10 50",
      "64 2",
      "8 24",
      "619 1.dat",
      "9360 6.dat",
      "300 6.dat",
      "15 00",
      "9 44",
      "42 15.dat",
      "53 3",
      "80 3",
      "36 79.dat",
      "233 5.dat",
      "7 94",
      "6 4.dat",
      "80 7",
      "67 4.dat",
      "354 64.dat",
      "15 535.dat",
      "70 6",
      "64 5",
      "56 9",
      "7 58.dat",
      "43 15.dat",
      "3004 4.dat",
      "889 30.dat",
      "54 7",
      "1470 4.dat",
      "15 379.dat",
      "66 8",
      "33 183.dat",
      "40 33.dat",
      "20 1.dat",
      "5 57",
      "7 34",
      "370 4.dat",
      "6 99",
      "7 65",
      "64 39",
      "1120 3.dat",
      "382 9.dat",
      "880 72.dat",
      "56 3",
      "64 68",
      "285 3.dat",
      "69 5",
      "39 56.dat",
      "70 1",
      "12 60",
      "416 69.dat",
      "47 45",
      "30 15",
      "9 10",
      "7 88",
      "38 39.dat",
      "70 7",
      "95 1",
      "486 2.dat",
      "6 94",
      "30 55",
      "325 30.dat",
      "80 6",
      "66 9",
      "374 2.dat",
      "3036 4.dat",
      "64 3",
      "60 7",
      "8 19",
      "42 18.dat",
      "70 2",
      "109 28.dat",
      "6 98",
      "6 35",
      "320 17.dat",
      "97 3.dat",
      "919 88.dat",
      "7 98",
      "249 4.dat",
      "70 5",
      "0 1.dat",
      "6047 5.dat",
      "24 201.dat",
      "62 3",
      "18 946.dat",
      "32 80",
      "24 6.dat",
      "70 3",
      "8 13",
      "24 246.dat",
      "244 6.dat",
      "69 1",
      "3245 a.dat",
      "12 40",
      "27 925.dat",
      "414 3.dat",
      "328 28.dat",
      "236 2.dat",
      "3280 3.dat",
      "5598 1.dat",
      "35 78",
      "4745 7.dat",
      "7 46",
      "80 1",
      "90 5",
      "6 29",
      "14 60",
      "2660 1.dat",
      "66 6",
      "473 5.dat",
      "6 59",
      "8 17",
      "29 120.dat",
      "9 58",
      "78 6",
      "6 75",
      "32 269.dat",
      "8 59",
      "9 24",
      "99 3.dat",
      "90 19",
      "71 1",
      "256 9.dat",
      "79 1",
      "50 94",
      "90 4",
      "265 3.dat",
      "252 14.dat",
      "7 24",
      "78 5",
      "1476 9.dat",
      "462 5.dat",
      "72 5",
      "4456 7.dat",
      "8 18",
      "28 78.dat",
      "7 62",
      "6 33",
      "10 30",
      "26 39.dat",
      "32 3.dat",
      "88 323.dat",
      "10 90",
      "368 40.dat",
      "30 16",
      "62 1",
      "7 35",
      "88 2",
      "371 2.dat",
      "42 13.dat",
      "8 14",
      "6059 4.dat",
      "291 19.dat",
      "416 1.dat",
      "389 9.dat",
      "8 26",
      "6 31",
      "c 01.dat",
      "7 54",
      "67 4",
      "3050 3.dat",
      "66 5",
      "8 56",
      "12 70",
      "18 674.dat",
      "72 6",
      "92 9",
      "74 9",
      "75 2.dat",
      "87 60",
      "374 1.dat",
      "39 60.dat",
      "68 1",
      "9 50",
      "8740 7.dat",
      "75 5",
      "4202 3.dat",
      "3578 7.dat",
      "3016 2.dat",
      "8760 9.dat",
      "1024 7.dat",
      "33 320.dat",
      "12 20",
      "80 9",
      "4 7.dat",
      "85 1",
      "260 47.dat",
      "30 48.dat",
      "7 67",
      "610 6.dat",
      "1 190",
      "876 20.dat",
      "80 5",
      "444 4.dat",
      "75 1",
      "4202 2.dat",
      "759 37.dat",
      "7 71",
      "3056 2.dat",
      "7 78",
      "6 37",
      "1 140",
      "68 5",
      "7 33",
      "242 3.dat",
      "78 2",
      "3255 7.dat",
      "62 66.dat",
      "8 48",
      "37 88.dat",
      "1 110",
      "6060 8.dat",
      "84 1",
      "850 80.dat",
      "79 5",
      "302 36.dat",
      "32 53",
      "10 19",
      "60 58",
      "7 42",
      "58 3",
      "7 31",
      "88 8",
      "303 56.dat",
      "7 58",
      "67 3",
      "14 20",
      "1546 1.dat",
      "12 00",
      "7 39",
      "46 97",
      "24 9.dat",
      "50 30",
      "65 5",
      "7 15",
      "20 8.dat",
      "1 100",
      "32 249.dat",
      "3035 5.dat",
      "69 7",
      "11 70",
      "6 71",
      "4 2446.dat",
      "578 9",
      "234 3.dat",
      "71 7",
      "7 99",
      "72 2",
      "70 9",
      "14 80",
      "78 7",
      "438 98.dat",
      "66 7",
      "68 7",
      "239 50.dat",
      "66 1",
      "656 4.dat",
      "9 327",
      "9327 4.dat",
      "368 5.dat",
      "36 78.dat",
      "6 93",
      "92 5",
      "61 184.dat",
      "48 59.dat",
      "6 92",
      "78 1",
      "68 2",
      "76 1",
      "68 9",
      "24 60.dat",
      "408 4.dat",
      "10 10",
      "9019 5.dat",
      "7 45",
      "65 3",
      "76 3",
      "7 79",
      "71 9",
      "74 1",
      "8 11",
      "402 2.dat",
      "8 12",
      "656 5.dat",
      "417 40.dat",
      "94 3",
      "5074 5.dat",
      "2 1.dat",
      "3253 1.dat",
      "32 209.dat",
      "625 19.dat",
      "5598 2.dat",
      "98 585.dat",
      "8 96",
      "147 20.dat",
      "98 4",
      "39 33.dat",
      "30 81",
      "300 .dat",
      "39 34.dat",
      "30 38",
      "13 90",
      "426 1.dat",
      "79 7",
      "5 77.dat",
      "92 1",
      "367 6.dat",
      "3212 6.dat",
      "272 6",
      "320 72.dat",
      "44 309.dat",
      "434 9.dat",
      "6 47",
      "7 37",
      "12 6.dat",
      "990 21.dat",
      "3055 3.dat",
      "367 5.dat",
      "39 40.dat",
      "65 56.dat",
      "28 54.dat",
      "8740 8.dat",
      "13 10",
      "18 64",
      "325 32.dat",
      "9 64",
      "8 27",
      "12 86",
      "3206 5.dat",
      "4456 8.dat",
      "60 60.dat",
      "38 585.dat",
      "189 48.dat",
      "9 33",
      "8 15",
      "9 12",
      "1019 7.dat",
      "30 165.dat",
      "3200 1.dat",
      "9 53",
      "27 39.dat",
      "4697 b.dat",
      "82 3",
      "8 35",
      "22 38",
      "8 64",
      "9 92",
      "3329 9.dat",
      "32 28.dat",
      "418 3.dat",
      "394 2.dat",
      "274 3.dat",
      "445 70.dat",
      "58 6.dat",
      "5 5.dat",
      "882 92.dat",
      "385 3.dat",
      "96 1",
      "300 00.dat",
      "c c01.dat",
      "415 39.dat",
      "11 80",
      "302 37.dat",
      "3081 cc01.dat",
      "1864 9.dat",
      "1520 8.dat",
      "234 6.dat",
      "8 22",
      "139 65.dat",
      "67 7",
      "31 39.dat",
      "241 16.dat",
      "604 71.dat",
      "90 2",
      "15 39",
      "12 82",
      "40 73.dat",
      "4739 7.dat",
      "422 9.dat",
      "9 38",
      "1 300",
      "1 160",
      "72 3",
      "304 1.dat",
      "300 55.dat",
      "6 27",
      "10 14",
      "72 7",
      "17 6.dat",
      "7 53",
      "8 66",
      "279 40.dat",
      "7 93",
      "15 30",
      "3219 8.dat",
      "9 14",
      "5789 5.dat",
      "453 1.dat",
      "66 3",
      "9 70",
      "274 4.dat",
      "64 9",
      "300 28.dat",
      "345 5.dat",
      "6468 3.dat",
      "7 73",
      "3015 3.dat",
      "8 54",
      "4739 8.dat",
      "9 28",
      "6439 1.dat",
      "63 32",
      "13 40",
      "77 7",
      "84 3",
      "82 1",
      "2726 3.dat",
      "8 25",
      "6058 1.dat",
      "32 138.dat",
      "7 38",
      "44 67",
      "88 3",
      "8 28",
      "48 71.dat",
      "28 80",
      "1282 5.dat",
      "24 93.dat",
      "144 18.dat",
      "7 64",
      "385 5.dat",
      "300 27.dat",
      "56 90",
      "10 16",
      "30 586.dat",
      "38 56.dat",
      "60 62",
      "8 46",
      "870 80.dat",
      "1894 5.dat",
      "48 5.dat",
      "425 4.dat",
      "92 69",
      "44 76.dat",
      "239 48.dat",
      "13 50",
      "8 74",
      "408 3.dat",
      "425 5.dat",
      "10 70",
      "14 71",
      "7 72",
      "9 42",
      "287 5.dat",
      "78 9",
      "72 9",
      "409 5.dat",
      "76 9",
      "7 47",
      "382 2.dat",
      "444 2.dat",
      "39 59.dat",
      "7 75",
      "9 34",
      "6062 3.dat",
      "54 4.dat",
      "87 544.dat",
      "876 9",
      "12 96",
      "624 9.dat",
      "330 8.dat",
      "306 48.dat",
      "75 7",
      "74 3",
      "625 31.dat",
      "6 83",
      "112 15.dat",
      "9 37",
      "456 77.dat",
      "559 76.dat",
      "40 34.dat",
      "6332 5.dat",
      "12 2.dat",
      "2880 2.dat",
      "14 59",
      "71 3",
      "2238 8.dat",
      "4 174",
      "4467 6.dat",
      "9 76",
      "426 2.dat",
      "382 1.dat",
      "8708 6.dat",
      "382 3.dat",
      "34 9.dat",
      "929 50.dat",
      "1 150",
      "29 59.dat",
      "9 45",
      "434 5.dat",
      "15 413.dat",
      "44 37",
      "8769 7.dat",
      "14 69",
      "38 320.dat",
      "1894 4.dat",
      "17 485.dat",
      "85 5",
      "3245 b.dat",
      "6 190.dat",
      "62 15.dat",
      "8 92",
      "24 13.dat",
      "47 16.dat",
      "58 176.dat",
      "1 320",
      "449 5.dat",
      "4437 5.dat",
      "67 9",
      "110 4",
      "30 60",
      "3060 2.dat",
      "5094 7.dat",
      "8 78",
      "1 130",
      "434 6.dat",
      "438 88.dat",
      "358 1.dat",
      "14 39",
      "14 79",
      "48 54.dat",
      "4 168",
      "59 349.dat",
      "403 5.dat",
      "612 6.dat",
      "47 30.dat",
      "9 309",
      "24 3.dat",
      "8 71",
      "8 57",
      "902 58.dat",
      "4 166.dat",
      "42 66.dat",
      "958 20.dat",
      "90 8",
      "45 90.dat",
      "618 2.dat",
      "9 39",
      "96 7.dat",
      "625 9.dat",
      "654 2.dat",
      "8 37",
      "89 5",
      "83 1",
      "u 90",
      "34 56.dat",
      "89 7",
      "3 2494.dat",
      "8 68",
      "3036 1.dat",
      "84 2",
      "4 189",
      "44 126.dat",
      "28 19.dat",
      "8586 3.dat",
      "10 32",
      "112 6",
      "119 54.dat",
      "60 84",
      "6084 9.dat",
      "245 2.dat",
      "14 50",
      "62 33.dat",
      "94 1",
      "40 92.dat",
      "112 53.dat",
      "3 184.dat",
      "30 39",
      "10 71",
      "10 52",
      "3038 6.dat",
      "241 19.dat",
      "15 25",
      "24 66.dat",
      "9 16",
      "905 40.dat",
      "18 57",
      "622 2.dat",
      "5 72.dat",
      "8 38",
      "330 7.dat",
      "17 8.dat",
      "9 9.dat",
      "426 3.dat",
      "348 3.dat",
      "14 84",
      "64 6.dat",
      "271 1.dat",
      "10 64",
      "8 29",
      "9 150",
      "9150 1.dat",
      "9 48",
      "237 7.dat",
      "13 30",
      "304 4.dat",
      "50 967.dat",
      "92 94",
      "9294 7.dat",
      "55 29",
      "88 1",
      "664 1.dat",
      "11 18",
      "29 20.dat",
      "1857 5.dat",
      "4168 2.dat",
      "3260 6.dat",
      "9 140",
      "9140 5.dat",
      "13 54",
      "23 40.dat",
      "9 31",
      "7 83",
      "14 10",
      "12 30",
      "36 84",
      "3684 1.dat",
      "41 80.dat",
      "459 5.dat",
      "9 46",
      "8 47",
      "88 646.dat",
      "8 65",
      "18 97",
      "14 00",
      "13 60",
      "4174 7.dat",
      "9 56",
      "304 3.dat",
      "36 34.dat",
      "8 98",
      "1020 2.dat",
      "36 1.dat",
      "62 361.dat",
      "9 11",
      "60 20.dat",
      "5030 5.dat",
      "8 39",
      "6 269.dat",
      "8 594",
      "600 32.dat",
      "417 48.dat",
      "8 94",
      "43 71",
      "3004 6.dat",
      "332 6.dat",
      "3255 5.dat",
      "32 18",
      "90 6",
      "632 90.dat",
      "1520 7.dat",
      "59 89",
      "5989 5.dat",
      "8 34",
      "34 4.dat",
      "8 73",
      "8 79",
      "428 5.dat",
      "36 50.dat",
      "33 243.dat",
      "45 15.dat",
      "323 24.dat",
      "u90 53.dat",
      "3200 6.dat",
      "6 479",
      "6479 9.dat",
      "24 307.dat",
      "64 178.dat",
      "303 50.dat",
      "6 308",
      "6308 2.dat",
      "15 27",
      "5030 4.dat",
      "9 35",
      "418 1.dat",
      "1354 7.dat",
      "98 5",
      "87 7",
      "608 7.dat",
      "15 32",
      "15 70",
      "14 56",
      "90 1",
      "453 3.dat",
      "94 9",
      "292 6.dat",
      "8 67",
      "394 3.dat",
      "614 8",
      "15 29",
      "1471 8.dat",
      "d .dat",
      "144 19.dat",
      "83 3",
      "444 7.dat",
      "12 78",
      "9 18",
      "730 92.dat",
      "2 9.dat",
      "86 1",
      "1539 5.dat",
      "258 2.dat",
      "9309 5.dat",
      "590 .dat",
      "80 9.dat",
      "44 809.dat",
      "44 300.dat",
      "167 70.dat",
      "575 20.dat",
      "32 33",
      "3233 3.dat",
      "418 2.dat",
      "84 5",
      "10 17",
      "99 3",
      "89 1",
      "19 15",
      "13 80",
      "474 58.dat",
      "30 3.dat",
      "45 590.dat",
      "92 6",
      "50 7.dat",
      "27 507.dat",
      "6439 3.dat",
      "88 5",
      "30 66",
      "3066 3.dat",
      "24 29",
      "2429 9.dat",
      "45 36.dat",
      "14 90",
      "300 99.dat",
      "12 72",
      "37 7.dat",
      "51 377.dat",
      "88 4",
      "15 60",
      "8 69",
      "7 50.dat",
      "3050 5.dat",
      "44 48.dat",
      "396 3.dat",
      "9 47",
      "10 56",
      "14 78",
      "99 5",
      "347 5.dat",
      "38 38.dat",
      "600 3.dat",
      "4176 7.dat",
      "33 303.dat",
      "9 79",
      "14 85",
      "924 10.dat",
      "10 96",
      "320 68.dat",
      "15 28",
      "417 68.dat",
      "6468 1.dat",
      "248 9.dat",
      "234 5.dat",
      "96 8",
      "96 2",
      "38 15.dat",
      "459 6.dat",
      "1894 7.dat",
      "88 6",
      "452 2.dat",
      "12 50",
      "417 6.dat",
      "15 50",
      "10 34",
      "15 7.dat",
      "12 88",
      "47 157.dat",
      "9290 6.dat",
      "657 5.dat",
      "19 1915",
      "290 9.dat",
      "876 18.dat",
      "12 94",
      "u 112",
      "15 40",
      "34 2.dat",
      "88 7",
      "10 49",
      "580 90.dat",
      "29 10.dat",
      "12 80",
      "4 186",
      "4186 2.dat",
      "234 1.dat",
      "520 31.dat",
      "292 3.dat",
      "154 70.dat",
      "24 33.dat",
      "320 59.dat",
      "1570 6.dat",
      "84 9",
      "6 190",
      "39 79",
      "u9 10",
      "859 70.dat",
      "272 3.dat",
      "15 13",
      "248 6.dat",
      "90 39",
      "38 90.dat",
      "98 100.dat",
      "96 3",
      "3050 4.dat",
      "8 44",
      "22 5.dat",
      "3252 9.dat",
      "9 13",
      "100 4",
      "10 54",
      "60 208.dat",
      "3 300.dat",
      "92 909.dat",
      "3229 3.dat",
      "34 79.dat",
      "9 355",
      "42 11.dat",
      "485 5.dat",
      "9 71",
      "11 13",
      "5 345",
      "5345 1.dat",
      "6 140.dat",
      "575 19.dat",
      "14 36",
      "3218 7.dat",
      "12 90",
      "136 6",
      "4189 6.dat",
      "20 5.dat",
      "48 205.dat",
      "26 37.dat",
      "3039 1.dat",
      "24 85",
      "5094 3.dat",
      "2485 5.dat",
      "765 37.dat",
      "1865 3.dat",
      "320 19.dat",
      "396 2.dat",
      "9 88",
      "14 83",
      "14 42",
      "578 78.dat",
      "707 20.dat",
      "30 13",
      "24 34.dat",
      "60 70.dat",
      "42 14.dat",
      "3035 9.dat",
      "486 3.dat",
      "442 37.dat",
      "8 52",
      "9 65",
      "415 31.dat",
      "189 77.dat",
      "48 208.dat",
      "100 8",
      "10 28",
      "27 38.dat",
      "15 10",
      "14 55",
      "116 7",
      "238 16.dat",
      "53 585.dat",
      "12 1.dat",
      "228 90.dat",
      "9355 5.dat",
      "12 35",
      "14 43",
      "60 616",
      "10 22",
      "40 344.dat",
      "617 8.dat",
      "8594 3.dat",
      "3055 2.dat",
      "10 92",
      "15 14",
      "14 86",
      "44 674.dat",
      "619 2.dat",
      "38 36.dat",
      "8 53",
      "15 31",
      "1539 7.dat",
      "14 68",
      "990 10.dat",
      "124 5",
      "28 73.dat",
      "48 72.dat",
      "9 59",
      "1469 6.dat",
      "9900 9.dat",
      "112 1",
      "9828 6.dat",
      "10 36",
      "10 88",
      "14 72",
      "14 96",
      "13 56",
      "30 145.dat",
      "3013 4.dat",
      "93 59",
      "862 10.dat",
      "3200 5.dat",
      "24 98.dat",
      "48 70.dat",
      "49 9.dat",
      "239 69.dat",
      "9 15",
      "45 32.dat",
      "30 126.dat",
      "29 3.dat",
      "88 293.dat",
      "34 5.dat",
      "6058 3.dat",
      "48 73.dat",
      "10 58",
      "48 183.dat",
      "14 89",
      "160 .dat",
      "86 3",
      "305 26.dat",
      "6 282",
      "6282 1.dat",
      "38 37.dat",
      "14 87",
      "11 36",
      "230 3",
      "8 58",
      "153 32.dat",
      "6464 7.dat",
      "27 4.dat",
      "70 0.dat",
      "271 9.dat",
      "421 7.dat",
      "346 4.dat",
      "25 71.dat",
      "9039 8.dat",
      "12 79",
      "6190 4.dat",
      "115 3",
      "486 9.dat",
      "24 482.dat",
      "8 93",
      "459 8.dat",
      "48 68.dat",
      "150 38.dat",
      "93 9.dat",
      "60 74",
      "6074 343",
      "100 1",
      "1 176",
      "462 2303",
      "30 140.dat",
      "13 36",
      "92 3",
      "117 7",
      "386 1.dat",
      "300 31.dat",
      "23 48.dat",
      "300 0",
      "10 72",
      "3979 3.dat",
      "1 302",
      "9 96",
      "186 71.dat",
      "450 4.dat",
      "98 2",
      "93 3.dat",
      "9269 3.dat",
      "358 2.dat",
      "16 80",
      "485 7.dat",
      "618 7.dat",
      "10 55",
      "15 24",
      "15 22",
      "114 5",
      "304 9.dat",
      "303 60.dat",
      "400 6.dat",
      "234 9.dat",
      "9019 4.dat",
      "43 719.dat",
      "90 3",
      "384 6.dat",
      "3000 8.dat",
      "112 13.dat",
      "96 48",
      "98 7",
      "1525 4.dat",
      "48 56.dat",
      "444 9.dat",
      "28 3.dat",
      "270 5.dat",
      "575 15.dat",
      "396 1.dat",
      "95 5",
      "14 57",
      "14 45",
      "14 49",
      "904 98.dat",
      "458 8.dat",
      "14 54",
      "643 92.dat",
      "340 3.dat",
      "3015 7.dat",
      "90 7",
      "9 1.dat",
[...]
